{
  "version": "1.0",
  "truncation": null,
  "padding": null,
  "added_tokens": [
    {
      "id": 0,
      "content": "[PAD]",
      "single_word": false,
      "lstrip": false,
      "rstrip": false,
      "normalized": false,
      "special": true
    },
    {
      "id": 1,
      "content": "[UNK]",
      "single_word": false,
      "lstrip": false,
      "rstrip": false,
      "normalized": false,
      "special": true
    },
    {
      "id": 2,
      "content": "[BOS]",
      "single_word": false,
      "lstrip": false,
      "rstrip": false,
      "normalized": false,
      "special": true
    },
    {
      "id": 3,
      "content": "[EOS]",
      "single_word": false,
      "lstrip": false,
      "rstrip": false,
      "normalized": false,
      "special": true
    }
  ],
  "normalizer": null,
  "pre_tokenizer": {
    "type": "ByteLevel",
    "add_prefix_space": false,
    "trim_offsets": true,
    "use_regex": true
  },
  "post_processor": null,
  "decoder": {
    "type": "ByteLevel",
    "add_prefix_space": true,
    "trim_offsets": true,
    "use_regex": true
  },
  "model": {
    "type": "BPE",
    "dropout": null,
    "unk_token": "[UNK]",
    "continuing_subword_prefix": null,
    "end_of_word_suffix": null,
    "fuse_unk": false,
    "byte_fallback": false,
    "ignore_merges": false,
    "vocab": {
      "[PAD]": 0,
      "[UNK]": 1,
      "[BOS]": 2,
      "[EOS]": 3,
      "\"": 4,
      "(": 5,
      ")": 6,
      ",": 7,
      "-": 8,
      ".": 9,
      "/": 10,
      "1": 11,
      "2": 12,
      "3": 13,
      "5": 14,
      "7": 15,
      "8": 16,
      "9": 17,
      ":": 18,
      ";": 19,
      "<": 20,
      "=": 21,
      ">": 22,
      "?": 23,
      "I": 24,
      "K": 25,
      "T": 26,
      "[": 27,
      "]": 28,
      "a": 29,
      "b": 30,
      "e": 31,
      "f": 32,
      "h": 33,
      "i": 34,
      "j": 35,
      "l": 36,
      "m": 37,
      "n": 38,
      "o": 39,
      "p": 40,
      "r": 41,
      "u": 42,
      "¡": 43,
      "¢": 44,
      "§": 45,
      "°": 46,
      "±": 47,
      "²": 48,
      "³": 49,
      "´": 50,
      "µ": 51,
      "¶": 52,
      "·": 53,
      "¸": 54,
      "¹": 55,
      "º": 56,
      "»": 57,
      "¼": 58,
      "½": 59,
      "¾": 60,
      "¿": 61,
      "Ð": 62,
      "Ñ": 63,
      "Ċ": 64,
      "Ġ": 65,
      "Ģ": 66,
      "ģ": 67,
      "Ĥ": 68,
      "ĥ": 69,
      "Ħ": 70,
      "ħ": 71,
      "Ĩ": 72,
      "ĩ": 73,
      "Ī": 74,
      "ī": 75,
      "Ĭ": 76,
      "ĭ": 77,
      "Į": 78,
      "į": 79,
      "İ": 80,
      "ı": 81,
      "Ĳ": 82,
      "Ĵ": 83,
      "ĵ": 84,
      "Ķ": 85,
      "Ĺ": 86,
      "ĺ": 87,
      "ļ": 88,
      "Ľ": 89,
      "ľ": 90,
      "Ŀ": 91,
      "ŀ": 92,
      "Ł": 93,
      "ł": 94,
      "Ń": 95,
      "Ð¾": 96,
      "ĠÐ": 97,
      "Ðµ": 98,
      "ÑĤ": 99,
      "Ñģ": 100,
      "Ð°": 101,
      "Ð¾Ð": 102,
      "Ð¸": 103,
      "Ð½": 104,
      "ÑĢ": 105,
      "ÐµÐ": 106,
      "Ð°Ð": 107,
      "Ñĥ": 108,
      "ÑģÑĤ": 109,
      "Ñı": 110,
      "ÑĮ": 111,
      "Ñĭ": 112,
      "Ð²": 113,
      "Ð»": 114,
      "Ñĩ": 115,
      "ĠÑģ": 116,
      "Ð´": 117,
      "ÑĤÐ¾": 118,
      "ĠÐ¸": 119,
      "ĠÐ¿": 120,
      "Ð°Ðº": 121,
      "Ð¼": 122,
      "Ð½Ð¾": 123,
      "ĠÐ½": 124,
      "ĠÐ²": 125,
      "ĠÐº": 126,
      "ĠÑĤ": 127,
      "Ðº": 128,
      "Ñħ": 129,
      "ĠÐ´": 130,
      "ĠĠ": 131,
      "ÑģÑı": 132,
      "Ð½Ð¸": 133,
      "Ñİ": 134,
      "ÐµÐ»": 135,
      "Ð¾Ð±": 136,
      "³Ð¾": 137,
      "Ð¾Ð²": 138,
      "ĠÑĩ": 139,
      "ĠÐ¾": 140,
      "ÑĢÐ¸": 141,
      "Ð¾Ð»": 142,
      "ÑģÑĤÐ²": 143,
      "ÐµÑĤ": 144,
      "Ð¾Ð´": 145,
      "ÑĤÑĮ": 146,
      "Ð¾Ð¼": 147,
      "Ð½Ñĭ": 148,
      "ÐµÐ¼": 149,
      "Ð¿": 150,
      "ÑĥÐ´": 151,
      "ĠÐ¼": 152,
      "Ñī": 153,
      "Ð·": 154,
      "Ð»Ð¸": 155,
      "ĠÑĢ": 156,
      "Ñį": 157,
      "ĠÐ½Ðµ": 158,
      "ĠÑĩÑĤÐ¾": 159,
      "Ð°Ð²": 160,
      "Ð°Ð·": 161,
      "Ð¶": 162,
      "ÑĪ": 163,
      "Ð¾Ð³Ð¾": 164,
      "ÐµÐ´": 165,
      "ĠÑį": 166,
      "ÐµÐ½Ð¸": 167,
      "ĠÑĤÐ°Ðº": 168,
      "ÑĤÐ¸": 169,
      "ĠÐºÐ°Ðº": 170,
      "Ð¾ÑģÑĤ": 171,
      "ÑĤÐ¾ÑĢ": 172,
      "ÑİÑĤ": 173,
      "ĠÐ·": 174,
      "Ð¾Ð¹": 175,
      "ÑģÑĤÐ¸": 176,
      "ĠÐ¿ÑĢ": 177,
      "ĠÐ¾ÑĤ": 178,
      "ĠÐ¾Ð±": 179,
      "ÐµÐ»ÑĮ": 180,
      "ĠÐµ": 181,
      "Ð¾Ð½": 182,
      "ÐµÐ¹": 183,
      "Ð°ÑĤÑĮ": 184,
      "ÐµÐ½": 185,
      "ÑģÐº": 186,
      "Ð¾Ð¿": 187,
      "ĠÐ´ÐµÐ»": 188,
      "Ð±": 189,
      "Ð°Ñģ": 190,
      "Ð¾Ð¶": 191,
      "ÐµÑĢ": 192,
      "ÑĤÐµÐ»ÑĮ": 193,
      "Ð°Ð½Ð¸": 194,
      "Ð°Ð¼": 195,
      "Ð¾Ñģ": 196,
      "ĠÑģÑĥÐ´": 197,
      "ĊĠĠ": 198,
      "Ð¾ÑĢ": 199,
      "Ð¾Ðº": 200,
      "ÐµÐ³Ð¾": 201,
      "ĠÐ¿ÑĢÐ¸": 202,
      "Ð¾Ð»ÑĮ": 203,
      "ĊĠĠĠĠ": 204,
      "³Ð¸": 205,
      "³Ð¾Ð²": 206,
      "ĠÑĤÐ¾": 207,
      "Ð¾ÑĤÐ¾ÑĢ": 208,
      "ĠÐ±": 209,
      "Ð°ÑİÑĤ": 210,
      "ÑģÑĤÑĮ": 211,
      "ÐµÑĤÑģÑı": 212,
      "¶Ð´": 213,
      "Ð°Ñħ": 214,
      "Ð»Ñı": 215,
      "ĠÑĢÐµ": 216,
      "Ġ-": 217,
      "Ð¾ÑĤ": 218,
      "Ð¸Ð»": 219,
      "Ð¸Ð¼": 220,
      "ĠÐ²Ñģ": 221,
      "Ð¾Ð¼Ñĥ": 222,
      "Ð¾ÐºÐ°Ð·": 223,
      "ĠÐ»": 224,
      "ĠÐ¾ÑĤÐ½Ð¾": 225,
      "Ð¾ÑĤÐ¾ÑĢÑĭ": 226,
      "¶Ðµ": 227,
      "Ð¹": 228,
      "Ð¾Ð¸": 229,
      "Ð½Ð°": 230,
      "ÐµÐ²": 231,
      "ÐµÐº": 232,
      "ÑĩÐ¸": 233,
      "ĠÑģÐ²": 234,
      "ĠÐ¸Ð»Ð¸": 235,
      "Ð¾Ð¿ÑĢ": 236,
      "ĠÐ°": 237,
      "ĠÐ³Ð¾Ð²": 238,
      "ĠÐ¶Ðµ": 239,
      "Ð°ÐµÑĤÑģÑı": 240,
      "Ð¾Ð·": 241,
      "ÑĢÐ°": 242,
      "ÐµÐ¶Ð´": 243,
      "ĠÑģÐ¿": 244,
      "ĠÐ´Ð¾ÐºÐ°Ð·": 245,
      "Ð¾Ð¶Ð½Ð¾": 246,
      "ĠÑģÑĥÐ´ÑĮ": 247,
      "ĠÐ¾Ð½": 248,
      "ÑĤÑģÑı": 249,
      "Ð¾Ð³Ð¸": 250,
      "Ð¸Ñħ": 251,
      "ĠÑģÐ»": 252,
      "ÐµÐ½Ð¸Ñı": 253,
      "Ð¾ÑĢÐ¸": 254,
      "ĠÐĴ": 255,
      "ÐµÐµ": 256,
      "ÑģÐ»": 257,
      "ÑģÑĥÐ´": 258,
      "Ð°ÑĤÐµÐ»ÑĮ": 259,
      "Ð¸Ðµ": 260,
      "ĠÑģÐ°Ð¼": 261,
      "ĠÐ¸Ð¼": 262,
      "ĠÐ¸ÑģÐº": 263,
      "Ð°ÐºÐ¾Ð½": 264,
      "Ð¼Ð¸": 265,
      "ĠÐ½Ð°": 266,
      "Ð°Ð²Ð»Ñı": 267,
      "ÐµÐ½Ð¸Ðµ": 268,
      "Ð¾ÑģÐ¾Ð±": 269,
      "ĠÐ±Ñĭ": 270,
      "ĠÑĥ": 271,
      "ÑģÑģÑĤÐ²": 272,
      "Ð½Ð¾Ð¹": 273,
      "ÑĢÑĥ": 274,
      "ÑĥÑī": 275,
      "ÑĥÐ¶": 276,
      "ÑĥÑģÑģÑĤÐ²": 277,
      "ÑĤÐ¾ÑĢÐ¸": 278,
      "ĠÐ¸Ð·": 279,
      "ĠÐ¸ÑģÑĤÐ¸": 280,
      "ĠÐºÐ°Ñģ": 281,
      "ĠÐºÐ¾ÑĤÐ¾ÑĢÑĭ": 282,
      "ĠÑĤÐ¾Ð³Ð¾": 283,
      "ÐºÐ¸": 284,
      "Ð½ÑĭÑħ": 285,
      "ĠÐ¼Ñĭ": 286,
      "ĠÑįÑĤ": 287,
      "ĠÐ¿ÑĢÐµÐ´": 288,
      "ĠÐ¸ÑģÐºÑĥÑģÑģÑĤÐ²": 289,
      "ÑģÐ¸": 290,
      "Ð°ÑĢ": 291,
      "Ð¸Ð´": 292,
      "Ð½Ðµ": 293,
      "Ð½ÑĤÐ¸": 294,
      "ÑĢÐ°Ð·": 295,
      "Ð°Ð»": 296,
      "ÑĥÑĩ": 297,
      "Ð»Ð¾Ð³Ð¸": 298,
      "ÐºÐ¾": 299,
      "ÑİÐ´": 300,
      "Ð¾Ð»Ð¶": 301,
      "Ð½ÑĭÐµ": 302,
      "Ð½ÑĭÐ¼": 303,
      "ÑĪÐµ": 304,
      "ĠÑįÑĤÐ¾": 305,
      "ĠÐµÑģÑĤÑĮ": 306,
      "ÑĤÐµÐ»ÑĮÐ½Ð¾": 307,
      "Ð°Ð½Ð¸Ñı": 308,
      "ĠÑĢÐµÑĩ": 309,
      "ĠÐ³Ð¾Ð²Ð¾ÑĢÐ¸": 310,
      "ĠÑģÐ¿Ð¾ÑģÐ¾Ð±": 311,
      "Ð°ÑĤÐµÐ»ÑĮÑģÑĤÐ²": 312,
      "ÑĢÑĥÐ": 313,
      "</": 314,
      "ĠÑħ": 315,
      "ĠÐ¾Ð´": 316,
      "Ð°ÑĤ": 317,
      "Ð¸ÑģÑĤ": 318,
      "ÑĥÑİ": 319,
      "Ð²Ð°ÑĤÑĮ": 320,
      "ĠÐ¿Ð¾ÑĤ": 321,
      "Ð¼ÐµÐ¼": 322,
      "ĠÐ½Ð¾": 323,
      "ĠÐ²Ñĭ": 324,
      "ĠÑĤÐµ": 325,
      "ĠÐ´ÑĢÑĥÐ": 326,
      "ÑģÑĤÐ²ÐµÐ½": 327,
      "Ð¿ÑĢ": 328,
      "Ð·Ð¼": 329,
      "ĠÑĢÐ¾Ð´": 330,
      "ĠÑĢÐ°Ñģ": 331,
      "ĠÐ·Ð°ÐºÐ¾Ð½": 332,
      "ĠÐ¾Ð±Ð»": 333,
      "ĠÐ´ÐµÐ»Ð¾": 334,
      "ĠÐ´ÐµÐ»Ñĥ": 335,
      "Ð¸Ð»Ð»Ð¾Ð³Ð¸": 336,
      "ĠÐ²ÑģÐµ": 337,
      "ĠÐ¾ÑĤÐ½Ð¾ÑģÑı": 338,
      "ĠÐ¾ÑĤÐ½Ð¾ÑģÐ¸": 339,
      "ĠÑģÐ²Ð¾": 340,
      "Ð¾Ð¿ÑĢÐ¾Ñģ": 341,
      "ĠÐ´Ð¾ÐºÐ°Ð·Ð°ÑĤÐµÐ»ÑĮÑģÑĤÐ²": 342,
      "ĠÑģÐ»ÑĥÑĩ": 343,
      "ĠÐ¸Ð¼Ðµ": 344,
      "ĠÐºÐ¾ÑĤÐ¾ÑĢÑĭÐµ": 345,
      "Ð½ÑĤÐ¸Ð¼ÐµÐ¼": 346,
      "ĠÐ¿Ð¾ÑĤÐ¾Ð¼Ñĥ": 347,
      "Ð¸Ð»Ð»Ð¾Ð³Ð¸Ð·Ð¼": 348,
      "ÐĲ": 349,
      "Ð¾ÑĤÐ¸": 350,
      "ĠÐŁ": 351,
      "ÐµÑģ": 352,
      "ÐµÑī": 353,
      "ÑģÐ»Ð¸": 354,
      "Ð°Ñı": 355,
      "ÐµÐ±": 356,
      "ÐµÐ·": 357,
      "Ð°Ð´": 358,
      "ÑıÑĤ": 359,
      "Ð²Ñĭ": 360,
      "Ð²Ð¾Ð¿": 361,
      "ÑĩÐµÐ²": 362,
      "ĠÑģÐ¾ÑģÑĤ": 363,
      "ĠÑģÐ¸ÑģÑĤ": 364,
      "ĠÑģÐ¸Ð»Ð»Ð¾Ð³Ð¸Ð·Ð¼": 365,
      "ĠÐ¿Ð¾": 366,
      "Ð½Ð¾Ðµ": 367,
      "ĠÐ½Ð¸": 368,
      "ĠÑĤÐµÐ¼": 369,
      "ÐºÐ°Ðº": 370,
      "ĠÐ´Ð¾Ð»Ð¶": 371,
      "ĠÑĩÐ°": 372,
      "ĠÐ¾ÑĢÐ°": 373,
      "ĠÐ¾ÑĩÐµÐ²": 374,
      "ÑĢÐ¸ÑĤÐ¾ÑĢÐ¸": 375,
      "ĠÑįÑĤÐ¸": 376,
      "ĠÑįÐ½ÑĤÐ¸Ð¼ÐµÐ¼": 377,
      "ĠÐ·Ð½": 378,
      "ĠÐµÑģÐ»Ð¸": 379,
      "Ð°Ð½Ð¸Ðµ": 380,
      "Ð¾Ð»ÑĮÐ·": 381,
      "Ð¾Ð»ÑĮÐºÐ¾": 382,
      "ĠÑĢÐµÑĪ": 383,
      "ĠÐ»ÑİÐ´": 384,
      "Ð¾Ð·Ð¼": 385,
      "ÐµÐ¶Ð´Ñĥ": 386,
      "ÑģÐ»ÐµÐ´": 387,
      "ÑĥÐ¶Ð´": 388,
      "Ð¸Ð´Ð½Ð¾": 389,
      "ĠÑĢÐ°ÑģÑģ": 390,
      "Ð¾ÑĤÐ¸Ð²Ð¾Ð¿": 391,
      "ĠÑģÐ¸ÑģÑĤÐµÐ¼": 392,
      "ĠÐ¾ÑĢÐ°ÑĤÐ¾ÑĢ": 393,
      "ĠÐ¾ÑĩÐµÐ²Ð¸Ð´Ð½Ð¾": 394,
      "Ð¾ÑĤÐ¸Ð²Ð¾Ð¿Ð¾Ð»": 395,
      "Ð³Ð¾Ð²": 396,
      "ÑĨ": 397,
      "Ġ[": 398,
      "ĠÑĢÐ¸ÑĤÐ¾ÑĢÐ¸": 399,
      "ÐµÑģÑĤ": 400,
      "Ð¾Ð³": 401,
      "Ð¸Ð½": 402,
      "Ð½Ð¾Ð³Ð¾": 403,
      "ÑĢÐ¾Ð´": 404,
      "ÑĭÐ²Ð°ÑĤÑĮ": 405,
      "ÑĩÐ½Ð¾": 406,
      "ĠÐ¿Ð¾Ð»": 407,
      "ĠÐ¿Ð¾Ð´": 408,
      "ĠÐ¿Ð¾Ð»ÑĮÐ·": 409,
      "ĠÐ½ÐµÐº": 410,
      "ĠÐ²Ð¾Ð¿ÑĢÐ¾Ñģ": 411,
      "ÐºÐ°": 412,
      "ĠÐ´Ð¾ÑģÑĤ": 413,
      "Ð½Ð¸Ð±": 414,
      "ĠÑĩÐµÐ¼": 415,
      "ÑģÑĤÐ²Ð¸": 416,
      "ÑģÑĤÐ²Ð¸Ðµ": 417,
      "ÐµÑĤÑĮ": 418,
      "ÑĥÐ´ÑĮ": 419,
      "ĠÐ¼ÐµÐ½": 420,
      "ĠÐ¼ÐµÐ¶Ð´Ñĥ": 421,
      "Ð»Ð¸Ð²": 422,
      "Ð°Ð²ÐµÐ´": 423,
      "ĠÐ¿ÑĢÐ°Ð²": 424,
      "ĠÐ¿ÑĢÐ¾ÑĤÐ¸Ð²Ð¾Ð¿Ð¾Ð»": 425,
      "ĠÐ¾Ð±ÑĢÐ°Ð·": 426,
      "Ð±ÐµÐ¶Ð´": 427,
      "³Ð¸Ðµ": 428,
      "Ð°ÑİÑĤÑģÑı": 429,
      "Ð¾Ð¸Ð·": 430,
      "ĠÑģÐ²Ð¾Ð¸": 431,
      "ĠÑģÑĥÐ´ÑĮÐ¸": 432,
      "ĠÐ¾Ð½Ð¸": 433,
      "Ð¸ÑħÑģÑı": 434,
      "ĠÑĥÐ±ÐµÐ¶Ð´": 435,
      "ĠÐºÐ°ÑģÐ°ÐµÑĤÑģÑı": 436,
      "ĠÐ¸ÑģÐºÑĥÑģÑģÑĤÐ²Ð°": 437,
      "ĠÐ¾ÑĤÐ½Ð¾ÑģÑıÑī": 438,
      "ĠÐ¾ÑĤÐ½Ð¾ÑģÐ¸ÑĤÐµÐ»ÑĮÐ½Ð¾": 439,
      "Ð½Ð¸Ð±ÑĥÐ´ÑĮ": 440,
      "Ð°Ð²ÐµÐ´Ð»Ð¸Ð²": 441,
      "></": 442,
      "¢Ð°Ðº": 443,
      "Ð³": 444,
      "Ð³Ð¾": 445,
      "ĠÑı": 446,
      "ĠÐ¾Ð¿ÑĢ": 447,
      "ļÑĢ": 448,
      "ĠÐ³": 449,
      "ĠÐł": 450,
      "ĠÐ¢Ð°Ðº": 451,
      "ĠÐļÑĢ": 452,
      "ÑĤÐ°Ðº": 453,
      "ÑģÐ¾": 454,
      "Ð°ÑĤÐ¾": 455,
      "Ð¸ÑĤÑģÑı": 456,
      "Ð¸Ð°Ð»": 457,
      "Ð½Ð¾Ð²": 458,
      "ÑĢÐµ": 459,
      "ÑĢÐ°Ð²ÐµÐ´Ð»Ð¸Ð²": 460,
      "Ð°Ð¶": 461,
      "Ð°Ð¶Ð´": 462,
      "ÑĥÑİÑĤ": 463,
      "ÑģÑĤÐ°Ð²Ð»Ñı": 464,
      "ÑıÐ¶": 465,
      "ÑĮÑĪÐµ": 466,
      "ÑĩÐµ": 467,
      "ÑĩÐµÐ³Ð¾": 468,
      "ĠÑģÐ¾": 469,
      "ĠÑģÐ¾Ð±": 470,
      "Ð´ÐµÐ»ÑĮ": 471,
      "Ð´ÐµÑģ": 472,
      "ĠÐ¿Ð¾ÑģÑĤ": 473,
      "Ð°ÐºÑĤ": 474,
      "ĠÐ½Ð°Ñħ": 475,
      "ĠÐºÐ°Ð¶Ð´": 476,
      "ĠÑĤÐ¾Ð¼": 477,
      "ĠÑĤÐ¾Ð»ÑĮÐºÐ¾": 478,
      "ĠÑĤÑıÐ¶": 479,
      "ĠÐ´ÐµÐ¹": 480,
      "ĠÐ´Ð»Ñı": 481,
      "ĠÐ´Ð¸Ð°Ð»": 482,
      "ÐµÐ»Ñı": 483,
      "Ð¾Ð±Ñī": 484,
      "ĠÑĩÐµÐ³Ð¾": 485,
      "Ð¾Ð»ÐµÐµ": 486,
      "Ð¾Ð¼Ðµ": 487,
      "Ð½ÑĭÐ¹": 488,
      "ĠÐ¼Ð½": 489,
      "ĠÐ¼Ð¾Ð¶": 490,
      "ĠÑĢÐ°Ð·": 491,
      "Ð¶Ðµ": 492,
      "ĠÑĤÐ°ÐºÐ¶Ðµ": 493,
      "ĠÐ¾ÑĤÐ´ÐµÐ»ÑĮ": 494,
      "ĠÐµÐµ": 495,
      "ÑģÐºÐ¾Ð³Ð¾": 496,
      "Ð±Ð¾": 497,
      "ĠÐ¿ÑĢÐ¸ÑĢÐ¾Ð´": 498,
      "ĠÑĤÐ¾ÑĤ": 499,
      "Ð¸Ð»ÑĮ": 500,
      "ĠÐ²ÑģÐµÐ³Ð¾": 501,
      "ÐµÐºÑĤÐ¸": 502,
      "ĠÐ³Ð¾Ð²Ð¾ÑĢ": 503,
      "ĠÑģÐ¿ÑĢÐ°Ð²ÐµÐ´Ð»Ð¸Ð²": 504,
      "ĠÐ´Ð¾ÐºÐ°Ð·ÑĭÐ²Ð°ÑĤÑĮ": 505,
      "ÑģÑĥÐ´Ð°ÑĢ": 506,
      "ĠÑįÑĤÐ¾Ð¼": 507,
      "ĠÑįÑĤÐ¾Ð³Ð¾": 508,
      "ĠÑĢÐµÑĩÐµÐ¹": 509,
      "ĠÐ³Ð¾Ð²Ð¾ÑĢÐ¸ÑĤÑĮ": 510,
      "ĠÐ´ÑĢÑĥÐ³Ð¸Ðµ": 511,
      "ĠÑĢÐ¾Ð´Ð°": 512,
      "ĠÐ¾Ð±Ð»Ð°": 513,
      "ĠÐ¸Ð¼ÐµÐµÑĤ": 514,
      "Ð¾Ð·Ð¼Ð¾Ð¶Ð½Ð¾": 515,
      "Ð³Ð¾Ð²Ð¾ÑĢ": 516,
      "ĠÐ¿ÑĢÐ¾ÑĤÐ¸Ð²Ð¾Ð¿Ð¾Ð»Ð¾Ð¶Ð½Ð¾": 517,
      "ĠÐ¾Ð±ÑĢÐ°Ð·Ð¾Ð¼": 518,
      "ĠÐļÑĢÐ¾Ð¼Ðµ": 519,
      "Ð´ÐµÑģÑĮ": 520,
      "ĠÑĤÑıÐ¶ÑĥÑī": 521,
      "ĠÐ´Ð¸Ð°Ð»ÐµÐºÑĤÐ¸": 522,
      "ul": 523,
      "¿ÑĢ": 524,
      "ÑĦ": 525,
      "ĊĊĠĠĠĠ": 526,
      "Ġ(": 527,
      "Ð¾Ðµ": 528,
      "Ð¾ÑĪ": 529,
      "ĠÐĺ": 530,
      "ĠÐ³Ð¾": 531,
      "ÐµÑģÑĤÐ¸": 532,
      "ÑĤÐ¾Ð±": 533,
      "ÑģÐµ": 534,
      "ÑģÐ½Ð¾": 535,
      "ÑģÑģÐ»ÐµÐ´": 536,
      "ÑģÐ½Ð¾Ð²": 537,
      "Ð°ÐµÑĤ": 538,
      "Ð°ÐµÐ¼": 539,
      "Ð¸ÑĤÐ¾ÑĢÐ¸": 540,
      "Ð½Ñĥ": 541,
      "Ð½ÑĥÑİ": 542,
      "ÑĢÐ°Ñģ": 543,
      "ÐµÐ³": 544,
      "Ð°Ð¹": 545,
      "ÑĥÑĤ": 546,
      "ÑĥÐµÑĤ": 547,
      "ÑĥÑĪ": 548,
      "ÑģÑĤÐ¾": 549,
      "ÑģÑĤÑĢ": 550,
      "ÑģÑĤÑı": 551,
      "ÑģÑĤÐµÐ¹": 552,
      "ÑĭÐ¹": 553,
      "Ð²Ð¸": 554,
      "Ð²ÐµÑĤ": 555,
      "Ð²Ð¾Ð´": 556,
      "Ð²ÐµÑģÑĤ": 557,
      "Ð»Ñİ": 558,
      "ÑĩÐ½Ð¾Ð¹": 559,
      "ĠÑģÐº": 560,
      "Ð´Ð°": 561,
      "ĠÐ¸ÑģÑģÐ»ÐµÐ´": 562,
      "ĠÐ¿ÐµÑĢ": 563,
      "Ð°ÐºÐ»Ñİ": 564,
      "Ð½Ð¾ÑĪ": 565,
      "Ð½Ð¾ÑģÑĤÐ¸": 566,
      "ĠÐ²ÐµÑī": 567,
      "ĠÐ²Ð°Ð¶": 568,
      "ĠÐºÑĤÐ¾": 569,
      "ÐºÐµ": 570,
      "ÐºÑĥ": 571,
      "ÑħÐ¾Ð´": 572,
      "ÑİÑī": 573,
      "ÐµÐ»Ð¸": 574,
      "Ð¾Ð²ÐµÑĢ": 575,
      "ĠÑĩÑĤÐ¾Ð±": 576,
      "ĠÐ¾ÑģÐ½Ð¾Ð²": 577,
      "ÑģÑĤÐ²Ð¾": 578,
      "ÑģÑĤÐ²ÑĥÑİÑĤ": 579,
      "Ð¿Ð¾Ð»": 580,
      "Ð¿ÐµÑĢ": 581,
      "ÑĥÐ´Ð¾Ð²": 582,
      "ĠÐ¼Ð¾Ð¶Ð½Ð¾": 583,
      "Ð»Ð¸Ñĩ": 584,
      "Ð»Ð¸Ð±Ð¾": 585,
      "ÑįÑĤ": 586,
      "Ð°Ð²Ð¸": 587,
      "Ð°Ð²Ð»": 588,
      "ÐµÐ½Ð¸Ñİ": 589,
      "ÐµÐ½Ð¸Ð¹": 590,
      "ÑĤÐ¾ÑĢÑĭ": 591,
      "ĠÐ·Ð°Ð": 592,
      "ĠÐ·Ð´ÐµÑģÑĮ": 593,
      "ĠÐ¾Ð±ÑĢÐ°": 594,
      "ĠÐµÐ³Ð¾": 595,
      "ĠÐ´ÐµÐ»Ðµ": 596,
      "ÐµÑĢÐµ": 597,
      "Ð°Ð½Ð¸Ð¸": 598,
      "Ð°Ð¼Ð¸": 599,
      "ĠÑģÑĥÐ´ÐµÐ±": 600,
      "Ð¾ÑĢÐ°": 601,
      "Ð¾ÑĢÐ¾ÑĪ": 602,
      "ĠÐ¿ÑĢÐ¸Ð³Ð¾Ð²Ð¾ÑĢ": 603,
      "ĠÐ±Ð¾Ð»ÑĮ": 604,
      "Ð¾ÑĤÑı": 605,
      "Ð¾ÑĤÐ²ÐµÑĤ": 606,
      "ĠÐ»Ð¸": 607,
      "ĠÑģÑĥÐ´ÑĮÐµ": 608,
      "Ð¾Ð³Ð¸Ñħ": 609,
      "ĠÐĴÑģÐ»ÐµÐ´": 610,
      "ÑģÑĥÐ´ÐµÐ±": 611,
      "Ð°Ð²Ð»ÑıÑİÑĤ": 612,
      "ĠÐ±ÑĭÑĤÑĮ": 613,
      "ĠÑĥÐ¼": 614,
      "ÑĥÐ¶Ð½Ð¾": 615,
      "ĠÐ¸ÑģÑĤÐ¸Ð½Ñĭ": 616,
      "ĠÐ¸ÑģÑĤÐ¸Ð½Ð°": 617,
      "ĠÐ¿ÑĢÐµÐ´Ð¾ÑģÑĤ": 618,
      "ĠÐ¿ÑĢÐµÐ´ÑģÑĤÐ°Ð²Ð»Ñı": 619,
      "ĠÑĢÐµÑĩÐ°Ñħ": 620,
      "ĠÑħÐ¾ÑĢÐ¾ÑĪ": 621,
      "ĠÐ·Ð°ÐºÐ¾Ð½Ñĭ": 622,
      "ĠÐ¾Ð±Ð»Ð°Ð´": 623,
      "ĠÑģÐ²Ð¾ÐµÐ¹": 624,
      "ĠÐ´Ð¾ÐºÐ°Ð·Ð°ÑĤÐµÐ»ÑĮÑģÑĤÐ²Ð°": 625,
      "ĠÑģÐ»ÑĥÑĩÐ°": 626,
      "ĠÐ½Ð¸ÑĩÐµÐ³Ð¾": 627,
      "ĠÑįÑĤÐ¸Ñħ": 628,
      "ĠÑĢÐµÑĪÐµÐ½Ð¸Ðµ": 629,
      "ĠÐ»ÑİÐ´Ð¸": 630,
      "ĠÑĢÐ°ÑģÑģÐ¼": 631,
      "ĠÑĢÐ°ÑģÑģÑĥÐ¶Ð´": 632,
      "ĠÐ¾ÑĢÐ°ÑĤÐ¾ÑĢÑģÐºÐ¾Ð³Ð¾": 633,
      "ĠÑĢÐ¸ÑĤÐ¾ÑĢÐ¸ÐºÐ¸": 634,
      "ĠÐ¿Ð¾Ð»ÐµÐ·": 635,
      "ĠÐ¿Ð¾Ð´Ð¾Ð±": 636,
      "ĠÐ½ÐµÐºÐ¾ÑĤÐ¾ÑĢÑĭ": 637,
      "ĠÐ²Ð¾Ð¿ÑĢÐ¾ÑģÐ¾Ð²": 638,
      "ĠÐ´Ð¾ÑģÑĤÐ°ÑĤÐ¾": 639,
      "ĠÐ¼ÐµÐ½ÑĮÑĪÐµ": 640,
      "ĠÑģÐ²Ð¾Ð¸Ñħ": 641,
      "ĠÑĥÐ±ÐµÐ¶Ð´ÐµÐ½Ð¸Ñı": 642,
      "ĠÑıÑģÐ½Ð¾": 643,
      "ĠÐłÐ¸ÑĤÐ¾ÑĢÐ¸": 644,
      "ÑĩÐµÑģÐº": 645,
      "ĠÑģÐ¾Ð±ÑģÑĤÐ²ÐµÐ½": 646,
      "ĠÐ½Ð°ÑħÐ¾Ð´": 647,
      "ĠÐ¼Ð¾Ð¶ÐµÑĤ": 648,
      "ĠÐ¿ÑĢÐ¸ÑĢÐ¾Ð´Ðµ": 649,
      "ĠÐ³Ð¾Ð²Ð¾ÑĢÑıÑĤ": 650,
      "ĠÐ¾Ð±Ð»Ð°ÑģÑĤÐ¸": 651,
      "ĠÐ³Ð¾ÑģÑĥÐ´Ð°ÑĢ": 652,
      "ÑģÑĤÑıÐ¼Ð¸": 653,
      "ĠÐ¸ÑģÑģÐ»ÐµÐ´Ð¾Ð²": 654,
      "Ð°ÐºÐ»ÑİÑĩ": 655,
      "ĠÑĩÑĤÐ¾Ð±Ñĭ": 656,
      "ĠÐ¾Ð±ÑĢÐ°Ñī": 657,
      "ĠÐ¿ÑĢÐ¸Ð³Ð¾Ð²Ð¾ÑĢÑĭ": 658,
      "ĠÐĴÑģÐ»ÐµÐ´ÑģÑĤÐ²Ð¸Ðµ": 659,
      "ĠÐłÐ¸ÑĤÐ¾ÑĢÐ¸ÐºÐ°": 660,
      ").": 661,
      "><": 662,
      "Ðĵ": 663,
      "ĠI": 664,
      "ĠÑĨ": 665,
      "ĠÑĦ": 666,
      "ŀÑĤ": 667,
      "ĠÐĹ": 668,
      "ĠÐľ": 669,
      "ĠÐĿ": 670,
      "ĠÐŀÑĤ": 671,
      "ÐµÐ½Ð¾": 672,
      "ÐµÑģÑĤÐ²": 673,
      "ÑģÐ¿": 674,
      "Ð°Ð½": 675,
      "Ð°ÑİÑī": 676,
      "Ð¸ÑĢ": 677,
      "Ð¸Ð·": 678,
      "Ð¸Ð±": 679,
      "Ð½ÐµÐ²": 680,
      "Ð½ÐµÐµ": 681,
      "Ð½Ð°Ð½Ð¸Ðµ": 682,
      "ÑĢÐµÐ¼": 683,
      "ÑĢÐµÐº": 684,
      "ÑĢÐ°Ð´": 685,
      "Ð°Ð³": 686,
      "ÑĥÐ¿": 687,
      "ÑģÑĤÐ°Ð»": 688,
      "ÑıÑı": 689,
      "ÑıÐ¼": 690,
      "ÑĭÑħ": 691,
      "ÑĭÑģÐº": 692,
      "Ð²Ð¾Ð»": 693,
      "Ð²ÐµÑģÑĤÐ¸": 694,
      "Ð²ÑĤÐ¾ÑĢÑĭ": 695,
      "Ð»Ð°Ð²": 696,
      "Ð»ÐµÐ´": 697,
      "Ð»ÑİÐ´": 698,
      "ÑĩÐº": 699,
      "ÑĩÐµÐ¼": 700,
      "ÑĩÐ½ÑĭÐµ": 701,
      "ĠÑģÑĥÑī": 702,
      "ĠÑģÐ¾Ð²ÐµÑĢ": 703,
      "Ð´ÐµÐ»": 704,
      "Ð´Ð¾ÑģÑĤ": 705,
      "Ð´Ð¾ÐºÐ°Ð·": 706,
      "Ð´Ð¾Ð»Ð¶": 707,
      "ĠÐ¿Ð¾Ð²": 708,
      "ĠÐ¿Ð¾ÑĢ": 709,
      "ĠÐ¿ÑĥÑĤ": 710,
      "Ð°ÐºÐ¾Ð²": 711,
      "Ð¼Ñĥ": 712,
      "Ð½Ð¾ÑģÑı": 713,
      "Ð½Ð¾ÑģÑĤÑĮ": 714,
      "ĠÐ½ÐµÑĤ": 715,
      "ĠÐ½ÑĥÐ¶Ð½Ð¾": 716,
      "ĠÐ²Ð¾": 717,
      "ĠÐ²Ð¾Ð·Ð¼Ð¾Ð¶Ð½Ð¾": 718,
      "ĠÑĤÐ°": 719,
      "ĠÑĤÐ¾Ð»": 720,
      "ÑģÑıÐ¶": 721,
      "Ð¾Ð±ÑĢ": 722,
      "Ð¾Ð±ÑĢÐ°Ð·": 723,
      "Ð¾Ð±ÑħÐ¾Ð´": 724,
      "Ð¾Ð²Ð¾": 725,
      "Ð¾Ð²Ð°": 726,
      "Ð¾Ð²Ð°ÑĤÑĮ": 727,
      "Ð¾Ð²Ð°Ð½Ð¸Ñı": 728,
      "ĠÐ¾ÑģÑĤÐ°Ð»": 729,
      "ÑĢÐ¸Ð²": 730,
      "ÑģÑĤÐ²Ð°Ñħ": 731,
      "ÑģÑĤÐ²ÑĥÑİ": 732,
      "ÐµÑĤÐ¾Ð´": 733,
      "Ð¾Ð´Ñĥ": 734,
      "Ð¾Ð´Ð°ÑĤÐµÐ»ÑĮ": 735,
      "Ð¿Ð¾": 736,
      "Ð¿ÑĢÐ¸": 737,
      "ĠÐ¼Ð¾Ð³": 738,
      "ĠÐ¼ÐµÑĢÐµ": 739,
      "ĠÐ¼ÐµÑĤÐ¾Ð´": 740,
      "ÑīÐ¸Ð¼": 741,
      "Ð·Ð°ÐºÐ¾Ð½": 742,
      "Ð°Ð·Ð°ÑĤÑĮ": 743,
      "ÑĪÐµÐ¹": 744,
      "ÐµÐ´Ð¸": 745,
      "ÐµÐ´ÐµÐ»Ñı": 746,
      "ÐµÐ´ÑĥÐµÑĤ": 747,
      "ĠÑĤÐ°ÐºÐ¸Ð¼": 748,
      "ĠÑĤÐ°ÐºÐ¸Ñħ": 749,
      "Ð¾ÑģÑĤÑĮ": 750,
      "Ð¾ÑģÑĤÐ¾ÑĢÐ°": 751,
      "ĠÐ·Ð°ÐºÐ»ÑİÑĩ": 752,
      "ĠÐ¿ÑĢÐ¾Ð¸Ð·": 753,
      "ĠÐ¿ÑĢÐ¾ÑģÑĤÐ¾ÑĢÐ°": 754,
      "ĠÐ¾ÑĤÐ»Ð¸Ñĩ": 755,
      "ĠÐ¾ÑĤÑĭÑģÐº": 756,
      "ĠÐ¾Ð±Ðµ": 757,
      "ĠÐµÐ¼Ñĥ": 758,
      "Ð°ÑĤÑĮÑģÑı": 759,
      "ÐµÐ½Ð½Ð¾": 760,
      "Ð±Ð¸ÑĢ": 761,
      "ÐµÑĢÐ¶": 762,
      "ÐµÐ³Ð¾ÑģÑı": 763,
      "ĠÐ¿ÑĢÐ¸ÑĩÐ¸": 764,
      "ĠÐ¿ÑĢÐ¸Ð²Ñĭ": 765,
      "ĠÐ¿ÑĢÐ¸ÑģÑıÐ¶": 766,
      "Ð¾Ð»ÑĮÑģÑĤÐ²Ð¸": 767,
      "Ð¾ÑĤÐ¾ÑĢÐ¾Ð³Ð¾": 768,
      "ĠÐ±Ð¾Ð»ÐµÐµ": 769,
      "ĠÑĢÐµÑĩÐ¸": 770,
      "Ð¸Ð¼Ð¾": 771,
      "ĠÐ²ÑģÐ»ÐµÐ´": 772,
      "ĠÐ»ÐµÐ³": 773,
      "Ð½Ð°Ñı": 774,
      "ÑĩÐ¸ÑĤ": 775,
      "Ð¾Ð¿ÑĢÐ¾Ð¸Ð·": 776,
      "ĠÐ°Ð²ÑĤÐ¾ÑĢÑĭ": 777,
      "ÑĢÐ°Ð½": 778,
      "ĠÑģÐ»ÐµÐ´ÑĥÐµÑĤ": 779,
      "ĠÐĴÑģÐµ": 780,
      "ÑģÑĥÐ´ÑĮ": 781,
      "Ð¸ÐµÑģÑı": 782,
      "ĠÑģÐ°Ð¼Ð¸": 783,
      "ĠÑģÐ°Ð¼Ð¾Ð¼Ñĥ": 784,
      "ĠÐ½Ð°Ð¸Ð±": 785,
      "ĠÐ¸Ð·Ð²ÐµÑģÑĤ": 786,
      "ĠÐ¸ÑģÑĤÐ¸Ð½Ñĥ": 787,
      "ĠÐºÐ°ÑģÐ°ÑİÑĤÑģÑı": 788,
      "ĠÐºÐ°ÑģÐ°ÑİÑī": 789,
      "ĠÐºÐ¾ÑĤÐ¾ÑĢÑĭÐ¼Ð¸": 790,
      "Ð°ÑĢÐ°ÐºÑĤ": 791,
      "Ð¸Ð´ÐµÑĤÑĮ": 792,
      "ĠÐ³Ð¾Ð²Ð¾ÑĢÐ¸Ð»Ð¸": 793,
      "ĠÑģÐ¿Ð¾ÑģÐ¾Ð±Ð¾Ð²": 794,
      "ĠÑģÐ¿Ð¾ÑģÐ¾Ð±Ð½Ñĭ": 795,
      "ĠÑģÐ¿Ð¾ÑģÐ¾Ð±Ð½ÑĭÐ¼": 796,
      "ĠÑħÐ¾ÑĤÑı": 797,
      "ĠÑħÐ°ÑĢÐ°ÐºÑĤ": 798,
      "ĠÐ¾Ð´Ð½Ð¸": 799,
      "ĠÐ¾Ð´Ð¸Ð½": 800,
      "Ð°ÑĤÐµÐ»Ñı": 801,
      "Ð°ÑĤÐµÐ»Ð¸": 802,
      "ĠÑĤÐµÑħ": 803,
      "ĠÐ¾ÑĤÐ½Ð¾ÑģÑıÑĤÑģÑı": 804,
      "ĠÐ¾ÑĤÐ½Ð¾ÑģÐ¸ÑĤÑģÑı": 805,
      "ĠÑģÐ²Ð¾Ñİ": 806,
      "ĠÐ´Ð¾ÐºÐ°Ð·Ð°ÑĤÐµÐ»ÑĮÑģÑĤÐ²Ð¾": 807,
      "ĠÑģÐ»ÑĥÑĩÐ°Ñı": 808,
      "ĠÑģÐ»ÑĥÑĩÐ°Ð¹": 809,
      "ĠÐ¸Ð¼ÐµÑİÑĤ": 810,
      "ĠÐŁÐ¾": 811,
      "Ð²ÑĭÐ¹": 812,
      "ĠÑģÐ¾ÑģÑĤÐ°Ð²Ð»ÑıÑİÑĤ": 813,
      "ĠÑģÐ¾ÑģÑĤÑĢÐ°Ð´": 814,
      "ĠÑģÐ¸Ð»Ð»Ð¾Ð³Ð¸Ð·Ð¼Ð¾Ð²": 815,
      "ÐºÐ°ÐºÐ¾Ð¹": 816,
      "ĠÐ´Ð¾Ð»Ð¶Ð½Ñĭ": 817,
      "ĠÐ´Ð¾Ð»Ð¶ÐµÐ½": 818,
      "ĠÑĩÐ°ÑģÑĤÐ¸": 819,
      "ĠÑįÐ½ÑĤÐ¸Ð¼ÐµÐ¼Ð°Ð¼": 820,
      "ĠÐ·Ð½Ð°Ð½Ð¸": 821,
      "ĠÑĢÐµÑĪÐµÐ½Ð¸Ñİ": 822,
      "Ð¾Ð·Ð¼Ð¾Ð¶": 823,
      "ĠÑģÐ¸ÑģÑĤÐµÐ¼Ñĥ": 824,
      "Ð¾Ð³Ð´Ð°": 825,
      "ĠÐ¿Ð¾Ð´Ð´": 826,
      "ĠÐ¿Ð¾Ð»ÑĮÐ·Ñĥ": 827,
      "ĠÐ½ÐµÐºÐ¾ÑĤÐ¾ÑĢÐ¾Ð³Ð¾": 828,
      "ÑģÑĤÐ²Ð¸ÑĤÐµÐ»ÑĮÐ½Ð¾": 829,
      "ĠÐ¼ÐµÐ½ÐµÐµ": 830,
      "ĠÐ¿ÑĢÐ°Ð²Ð¸Ð»ÑĮ": 831,
      "ĠÑģÐ²Ð¾Ð¸Ð¼Ð¸": 832,
      "ĠÐ¾ÑĤÐ½Ð¾ÑģÑıÑīÐ¸ÑħÑģÑı": 833,
      "ĠÐ¾Ð¿ÑĢÐµÐ´ÐµÐ»Ñı": 834,
      "ĠÐ³Ð»Ð°Ð²": 835,
      "ÑģÐ¾Ð¾ÑĤÐ²ÐµÑĤ": 836,
      "ÑĢÐµÑĩ": 837,
      "ĠÐ¿Ð¾ÑģÑĤÐ°Ð²Ð»": 838,
      "ĠÐºÐ°Ð¶Ð´ÑĭÐ¹": 839,
      "ĠÐ´ÐµÐ¹ÑģÑĤÐ²ÑĥÑİÑĤ": 840,
      "ĠÐ´ÐµÐ¹ÑģÑĤÐ²Ð¸ÑĤÐµÐ»ÑĮÐ½Ð¾": 841,
      "ĠÐ¼Ð½ÐµÐ½Ð¸Ðµ": 842,
      "ĠÐ¼Ð½Ð¾Ð³Ð¸Ñħ": 843,
      "ĠÐ¾ÑĤÐ´ÐµÐ»ÑĮÐ½ÑĭÑħ": 844,
      "ĠÑģÐ¿ÑĢÐ°Ð²ÐµÐ´Ð»Ð¸Ð²Ð¾ÑģÑĤÑĮ": 845,
      "ĠÑĤÑıÐ¶ÑĥÑīÐ¸ÑħÑģÑı": 846,
      "ĠÐ´Ð¸Ð°Ð»ÐµÐºÑĤÐ¸ÐºÐµ": 847,
      "¿ÑĢÐµÑī": 848,
      "ĠÐĺÑĤÐ°Ðº": 849,
      "ÑĥÑĪÐ¸": 850,
      "ĠÑģÐºÐ°Ð·Ð°ÑĤÑĮ": 851,
      "ĠÐ¿ÐµÑĢÐ²ÑĭÐ¹": 852,
      "Ð½Ð¾ÑĪÐµÐ½Ð¸Ðµ": 853,
      "ĠÐ²Ð°Ð¶ÐµÐ½": 854,
      "ĠÐ¾ÑģÐ½Ð¾Ð²Ð°Ð½Ð¸Ð¸": 855,
      "ÑĥÐ´Ð¾Ð²Ð¾Ð»ÑĮÑģÑĤÐ²Ð¸": 856,
      "ÑįÑĤÐ¾Ð³Ð¾": 857,
      "ĠÐ·Ð°Ð¿ÑĢÐµÑī": 858,
      "ĠÐ±Ð¾Ð»ÑĮÑĪÐµ": 859,
      "ÑģÑĥÐ´ÐµÐ±Ð½ÑĭÑħ": 860,
      "ĠÑĥÐ¼ÐµÑĤÑĮ": 861,
      "ĠÐ¿ÑĢÐµÐ´ÑģÑĤÐ°Ð²Ð»ÑıÐµÑĤÑģÑı": 862,
      "ĠÑħÐ¾ÑĢÐ¾ÑĪÐ¾": 863,
      "ĠÐ¾Ð±Ð»Ð°Ð´Ð°ÐµÑĤ": 864,
      "ĠÑģÐ»ÑĥÑĩÐ°ÐµÐ²": 865,
      "ĠÑĢÐ°ÑģÑģÐ¼Ð°ÑĤ": 866,
      "ĠÑĢÐ°ÑģÑģÑĥÐ¶Ð´ÐµÐ½Ð¸Ñı": 867,
      "ĠÐ½ÐµÐºÐ¾ÑĤÐ¾ÑĢÑĭÐ¼": 868,
      "ĠÐ´Ð¾ÑģÑĤÐ°ÑĤÐ¾ÑĩÐ½Ð¾Ð¹": 869,
      "ÑĩÐµÑģÐºÐ¸Ñħ": 870,
      "ĠÐ³Ð¾ÑģÑĥÐ´Ð°ÑĢÑģÑĤÐ²Ð°Ñħ": 871,
      "ĠÐ¸ÑģÑģÐ»ÐµÐ´Ð¾Ð²Ð°ÑĤÐµÐ»Ð¸": 872,
      "ĠÑĦÐ°ÐºÑĤ": 873,
      "ĠÐŀÑĤÐ½Ð¾ÑĪÐµÐ½Ð¸Ðµ": 874,
      "ÑģÐ¿Ð¾ÑģÐ¾Ð±": 875,
      "ÑĩÐºÐ¾Ð¹": 876,
      "ÑĩÐµÐ¼Ñĥ": 877,
      "ĠÑģÐ¾Ð²ÐµÑĢÑĪ": 878,
      "ĠÐ¿ÑĥÑĤÐµÐ¼": 879,
      "ĠÑĤÐ¾Ð»Ð¿": 880,
      "Ð¾Ð±ÑħÐ¾Ð´Ð¸Ð¼Ð¾": 881,
      "ĠÐ¾ÑģÑĤÐ°Ð»ÑĮ": 882,
      "ĠÐ·Ð°ÐºÐ»ÑİÑĩÐ°ÐµÑĤÑģÑı": 883,
      "ĠÐ¾ÑĤÐ»Ð¸ÑĩÐ°ÑİÑĤÑģÑı": 884,
      "ĠÐ¾ÑĤÑĭÑģÐºÐ°Ð½Ð¸Ñı": 885,
      "ĠÐ¿ÑĢÐ¸Ð²ÑĭÑĩÐºÐ¾Ð¹": 886,
      "ĠÐ¿ÑĢÐ¸ÑģÑıÐ¶Ð½ÑĭÐµ": 887,
      "ĠÐ²ÑģÐ»ÐµÐ´ÑģÑĤÐ²Ð¸Ðµ": 888,
      "Ð¾Ð¿ÑĢÐ¾Ð¸Ð·Ð²Ð¾Ð´": 889,
      "ĠÑħÐ°ÑĢÐ°ÐºÑĤÐµÑĢ": 890,
      "ĠÑģÐ»ÑĥÑĩÐ°Ð¹Ð½Ð¾": 891,
      "ĠÑģÐ¾ÑģÑĤÑĢÐ°Ð´Ð°Ð½Ð¸Ðµ": 892,
      "ĠÐ¿ÑĢÐ°Ð²Ð¸Ð»ÑĮÐ½ÑĭÐ¹": 893,
      "ĠÐ¾Ð¿ÑĢÐµÐ´ÐµÐ»ÑıÑĤÑĮ": 894,
      "ĠÐ¿Ð¾ÑģÑĤÐ°Ð²Ð»ÐµÐ½Ð¾": 895,
      "ÑĥÐ´Ð¾Ð²Ð¾Ð»ÑĮÑģÑĤÐ²Ð¸Ñı": 896,
      "),": 897,
      ".)": 898,
      ".,": 899,
      "19": 900,
      "35": 901,
      "78": 902,
      "Ka": 903,
      "Tr": 904,
      "],": 905,
      "].": 906,
      "am": 907,
      "fj": 908,
      "nam": 909,
      "oo": 910,
      "poo": 911,
      "ufj": 912,
      "¡Ð°Ð¼": 913,
      "¢Ð¾Ð¿": 914,
      "§ÑĤÐ¾": 915,
      "±Ð¾ÑĤÑı": 916,
      "±Ð»ÑİÐ´": 917,
      "³Ð¾Ð¼": 918,
      "¶Ð°": 919,
      "¿ÑĢÐ¸": 920,
      "¿ÐµÐ½Ð¸": 921,
      "ÐĴ": 922,
      "Ðĺ": 923,
      "Ðļ": 924,
      "ÐĽ": 925,
      "ÐĿ": 926,
      "Ð¢Ð¾Ð¿": 927,
      "ÑĬ": 928,
      "ĊĊĊĠĠĠĠ": 929,
      "Ġ\"": 930,
      "Ġ<": 931,
      "ĠÑģÑĤ": 932,
      "ĠÐ¾Ðº": 933,
      "ĠÑģÑĤÑĢ": 934,
      "ĠÑĥÐ´Ð¾Ð²Ð¾Ð»ÑĮÑģÑĤÐ²Ð¸Ñı": 935,
      "Ġ19": 936,
      "Ġnam": 937,
      "ĶÐ¾": 938,
      "ŃÑĤÐ¸": 939,
      "Ð¾Ñı": 940,
      "Ð¾Ñī": 941,
      "Ð¾ÐµÐ½Ð¸Ðµ": 942,
      "Ð¾ÑıÑĤ": 943,
      "Ð¾ÑĨ": 944,
      "Ð¾ÑĩÐµÐ³Ð¾": 945,
      "ĠÐ¡Ð°Ð¼": 946,
      "ĠÐ§ÑĤÐ¾": 947,
      "ĠÐĶÐ¾": 948,
      "ĠÐŃÑĤÐ¸": 949,
      "ÐµÐ½Ñĭ": 950,
      "ÐµÑĪ": 951,
      "ÐµÐ¸Ð¼": 952,
      "ÐµÑģÑĤÐ²ÐµÐ½": 953,
      "ÐµÑĩÐ½Ð¾": 954,
      "ÐµÑĥÐ´Ð¾Ð²": 955,
      "ÑĤÑĭ": 956,
      "ÑĤÐµÑĢ": 957,
      "ÑĤÐ°ÐµÑĤÑģÑı": 958,
      "ÑĤÐ¾Ð»ÑĮÐºÐ¾": 959,
      "ÑģÑĥ": 960,
      "ÑģÑĮ": 961,
      "ÑģÐ²": 962,
      "ÑģÐ°Ð¼": 963,
      "ÑģÐ¿ÑĢ": 964,
      "ÑģÐ¸Ð»Ð»Ð¾Ð³Ð¸Ð·Ð¼": 965,
      "ÑģÐµÑģ": 966,
      "ÑģÑĥÐ¶Ð´": 967,
      "ÑģÐ¸Ð»ÑĮ": 968,
      "ÑģÑĩÐ¸ÑĤ": 969,
      "Ð°ÑģÑĤ": 970,
      "Ð°Ð½Ð¾": 971,
      "Ð°Ð¸Ð¼": 972,
      "Ð°ÑĩÐ¸": 973,
      "Ð°Ð½Ð¾Ð²": 974,
      "Ð¸ÑĤ": 975,
      "Ð¸Ñı": 976,
      "Ð¸ÑĤÑĮ": 977,
      "Ð¸ÑģÑĤÐ¸": 978,
      "Ð¸ÐºÐ¸": 979,
      "Ð¸Ð²Ð°ÑĤÑĮ": 980,
      "Ð¸Ð½Ð¾Ðµ": 981,
      "Ð¸ÑĩÐ½Ð¾": 982,
      "Ð¸Ð³": 983,
      "Ð¸Ð±Ð¾": 984,
      "Ð¸ÐºÐµ": 985,
      "Ð½ÐµÐ": 986,
      "Ð½Ð°Ð": 987,
      "Ð½Ð°Ðº": 988,
      "Ð½ÐµÑĤ": 989,
      "Ð½Ð¾Ð¼": 990,
      "Ð½Ð°Ñħ": 991,
      "Ð½Ð¾Ð¼Ñĥ": 992,
      "Ð½ÐµÐº": 993,
      "Ð½Ð°Ð²Ð¸": 994,
      "Ð½ÐµÐ½Ð¸Ð¹": 995,
      "Ð½Ð¾Ð³Ð¸Ñħ": 996,
      "Ð½ÑĥÐ¶Ð½Ð¾": 997,
      "Ð½ÑĤÐµÑĢ": 998,
      "ÑĢÑĥÐ´": 999,
      "ÑĢÐ¾Ð¸": 1000,
      "ÑĢÐµÐ½Ð¸Ñı": 1001,
      "ÑĢÐµÐ½Ð¸Ðµ": 1002,
      "ÑĢÐ½Ð¾Ðµ": 1003,
      "ÐµÐ¶Ð°": 1004,
      "ÐµÐ¿ÐµÐ½Ð¸": 1005,
      "Ð°Ð¶Ðµ": 1006,
      "Ð°Ð¿ÑĢÐ¸": 1007,
      "ÑĥÐ²": 1008,
      "ÑĥÐº": 1009,
      "ÑĥÑĤÑĮ": 1010,
      "ÑĥÑĤÐ¸": 1011,
      "ÑĥÐºÐ¸": 1012,
      "ÑĥÑĢÐ½Ð¾Ðµ": 1013,
      "ÑģÑĤÐ½Ð¾": 1014,
      "ÑģÑĤÑĢÐ°": 1015,
      "ÑģÑĤÐ½ÑĭÑħ": 1016,
      "ÑıÐ´": 1017,
      "ÑıÑĤÑĮ": 1018,
      "ÑıÑī": 1019,
      "ÑıÐ·": 1020,
      "ÑıÑİÑĤ": 1021,
      "ÑĮÑİ": 1022,
      "ÑĮÐ¼Ð¸": 1023,
      "ÑĭÐµ": 1024,
      "ÑĭÐ»": 1025,
      "ÑĭÑĪ": 1026,
      "ÑĭÐ½Ðµ": 1027,
      "ÑĭÑĩÐ½Ð¾": 1028,
      "ÑĭÑĤÐ°ÐµÑĤÑģÑı": 1029,
      "Ð²Ð¾": 1030,
      "Ð²Ð¾Ð¼": 1031,
      "Ð²Ð¾Ð³Ð¾": 1032,
      "Ð²Ð°ÑİÑĤ": 1033,
      "Ð²Ð»Ñı": 1034,
      "Ð²Ð¾Ð·": 1035,
      "Ð²Ð¾ÑĢÐ¸": 1036,
      "Ð²Ð¾Ð¿ÑĢÐ¾Ñģ": 1037,
      "Ð²ÐµÑī": 1038,
      "Ð²Ð°Ñı": 1039,
      "Ð²Ð¸Ð½": 1040,
      "Ð²Ð¾Ð·Ð¼Ð¾Ð¶Ð½Ð¾": 1041,
      "Ð²ÑģÐµ": 1042,
      "Ð²Ð¸Ð´ÐµÑĤÑĮ": 1043,
      "Ð»Ð¾": 1044,
      "Ð»ÐµÑĤ": 1045,
      "Ð»Ð°Ñģ": 1046,
      "Ð»ÐµÐ²": 1047,
      "Ð»Ð°ÑĤ": 1048,
      "Ð»ÐµÐ½Ð¸Ð¹": 1049,
      "Ð»ÐµÐ¶Ð°": 1050,
      "ÑĩÑĤÐ¾": 1051,
      "ÑĩÐ¸Ð»": 1052,
      "ÑĩÐºÐ¸": 1053,
      "ÑĩÐ°ÑģÑĤ": 1054,
      "ĠÑģÐ¼": 1055,
      "ĠÑģÐ¾Ð´": 1056,
      "ĠÑģÐ¾Ð·": 1057,
      "ĠÑģÐ¸Ñħ": 1058,
      "ĠÑģÐ¾Ð³": 1059,
      "ĠÑģÐ½Ð¾ÑĪ": 1060,
      "ĠÑģÐ´ÐµÐ»": 1061,
      "ĠÑģÑĥÑĤÑĮ": 1062,
      "Ð´Ð¾": 1063,
      "Ð´Ðµ": 1064,
      "Ð´Ð¾Ð»": 1065,
      "Ð´Ð°Ð²": 1066,
      "Ð´Ð¾Ð¿": 1067,
      "Ð´Ð»Ñı": 1068,
      "Ð´ÑĢÑĥÐ": 1069,
      "Ð´ÑĭÐ²Ð°ÑĤÑĮ": 1070,
      "Ð´ÐµÐ½Ð¸Ñİ": 1071,
      "ĠÐ¸Ñħ": 1072,
      "ĠÐ¸Ð½ÑĤÐµÑĢ": 1073,
      "ĠÐ¿Ð¾Ð±": 1074,
      "ĠÐ¿Ð¾Ð¼": 1075,
      "ĠÐ¿Ð¾Ð½": 1076,
      "ĠÐ¿Ð¾Ð·": 1077,
      "ĠÐ¿Ð¾ÑĢÐ¸": 1078,
      "ĠÐ¿ÑĥÑĤÐ¸": 1079,
      "ĠÐ¿ÑĭÑĤÐ°ÐµÑĤÑģÑı": 1080,
      "Ð°ÐºÐ¾Ð¼": 1081,
      "Ð¼ÐµÑĤ": 1082,
      "Ð¼ÐµÑĢ": 1083,
      "Ð¼Ð°ÐµÑĤÑģÑı": 1084,
      "Ð¼Ð°Ð½Ð¸Ñı": 1085,
      "Ð¼ÐµÑģÑĤ": 1086,
      "Ð¼ÐµÑĢÐµ": 1087,
      "Ð¼ÑĭÑĪ": 1088,
      "Ð½Ð¾ÑģÐ¸": 1089,
      "Ð½Ð¾ÑģÑĤÑıÐ¼Ð¸": 1090,
      "ĠÐ½ÐµÐ¼": 1091,
      "ĠÐ½Ð°Ð¼": 1092,
      "ĠÐ½ÐµÐ²": 1093,
      "ĠÐ½Ð¸Ñħ": 1094,
      "ĠÐ½Ð°Ð»": 1095,
      "ĠÐ½ÐµÐ·": 1096,
      "ĠÐ½Ð°Ð¹": 1097,
      "ĠÐ½Ð°Ð¿ÑĢÐ¸": 1098,
      "ĠÐ½ÑĭÐ½Ðµ": 1099,
      "ĠÐ²ÑģÑı": 1100,
      "ĠÐ²Ð½Ð¸": 1101,
      "ĠÐ²ÐµÑĢ": 1102,
      "ĠÐ²Ð¾Ð·": 1103,
      "ĠÐ²ÐµÐ·": 1104,
      "ĠÐ²ÐµÑģÑĤÐ¸": 1105,
      "ĠÐ²ÑĢÐµÐ¼": 1106,
      "ĠÐ²Ð¸Ð´ÐµÑĤÑĮ": 1107,
      "ĠÐ²Ð¾Ð·Ð¼Ð¾Ð¶": 1108,
      "ĠÐºÐ¾Ð²": 1109,
      "ĠÐºÐ¾Ð½": 1110,
      "ĠÐºÐ¾ÑĤÐ¾ÑĢ": 1111,
      "ĠÐºÐ¾Ð³Ð´Ð°": 1112,
      "ĠÑĤÑĥ": 1113,
      "ĠÑĤÐ¾Ð¹": 1114,
      "ĠÑĤÐ°Ð¼": 1115,
      "ĠÑĤÐ¾Ð¼Ñĥ": 1116,
      "ĠÑĤÐ¾Ð³Ð´Ð°": 1117,
      "ĠÑĤÑĢÑĥÐ´": 1118,
      "ÐºÑĤÐ¾": 1119,
      "ÐºÐ¾Ð³Ð¾": 1120,
      "ÐºÐ°Ñģ": 1121,
      "ÐºÐ¾ÑĤÐ¾ÑĢÑĭ": 1122,
      "ÐºÑģÐµÑģ": 1123,
      "ÐºÐ»ÐµÐ²": 1124,
      "ĠÐ´Ð²Ð¸": 1125,
      "ĠÐ´ÑĥÑĪÐ¸": 1126,
      "ĠÐ´Ð°Ð¶Ðµ": 1127,
      "ĠÐ´ÑĥÑĢÐ½Ð¾Ðµ": 1128,
      "Ð½Ð¸ÑĤ": 1129,
      "Ð½Ð¸Ñħ": 1130,
      "Ð½Ð¸ÐµÐ¼": 1131,
      "Ð½Ð¸Ð»Ð¸": 1132,
      "Ð½Ð¸ÑĩÐµÑģÐºÐ¸Ñħ": 1133,
      "ÑİÐ±": 1134,
      "ÐµÐ»Ð¾": 1135,
      "Ð¾Ð±Ð½Ð¾Ð³Ð¾": 1136,
      "Ð¾Ð±Ð²Ð¸Ð½": 1137,
      "³Ð¾Ðµ": 1138,
      "Ð¾Ð²Ð¾Ð´": 1139,
      "Ð¾Ð²Ð¾Ð¹": 1140,
      "Ð¾Ð²Ð¸Ñı": 1141,
      "ĠÑĩÐ¸ÑģÑĤ": 1142,
      "ĠÑĩÑĥÐ¶Ð´": 1143,
      "ĠÑĩÑĥÐ²": 1144,
      "ĠÐ¾ÑģÑĤÐ°Ð²Ð»Ñı": 1145,
      "ÑĢÐ¸ÑĩÐ¸": 1146,
      "ÑĢÐ¸Ð²Ð°ÑĤÑĮ": 1147,
      "ÑĢÐ¸ÑģÑĤÐ¾": 1148,
      "ÑģÑĤÐ²Ð°": 1149,
      "ÑģÑĤÐ²Ð¾Ð¼": 1150,
      "ÑģÑĤÐ²Ð¾Ð²Ð°ÑĤÑĮ": 1151,
      "ÐµÑĤÐ°": 1152,
      "ÐµÑĤÐ¸ÐºÐ¸": 1153,
      "Ð¾Ð´ÑĩÐ¸": 1154,
      "Ð¾Ð´Ð¸Ð½": 1155,
      "Ð¾Ð´Ð¾Ð±ÑĢ": 1156,
      "Ð¾Ð´Ð°ÑĤÐµÐ»Ñı": 1157,
      "Ð¾Ð´Ð»ÐµÐ¶Ð°": 1158,
      "Ð¾Ð´Ð¾Ð±Ð½Ð¾Ð³Ð¾": 1159,
      "Ð½ÑĭÐ¼Ð¸": 1160,
      "ÐµÐ¼Ðµ": 1161,
      "ÐµÐ¼ÐµÐ½Ð½Ð¾": 1162,
      "Ð¿Ð¾ÑģÑĤ": 1163,
      "Ð¿Ð¾Ñģ": 1164,
      "Ð¿Ð¾ÐºÐ°Ð·": 1165,
      "Ð¿Ð¾Ð·": 1166,
      "Ð¿Ð¾Ð´Ð»ÐµÐ¶Ð°": 1167,
      "ÑĥÐ´Ð¸Ðµ": 1168,
      "ÑĥÐ´ÑĥÑī": 1169,
      "ĠÐ¼ÐµÑģÑĤ": 1170,
      "ĠÐ¼Ð½Ð¾Ð³Ð¾": 1171,
      "ĠÐ¼ÐµÑĪ": 1172,
      "ÑīÐµ": 1173,
      "ÑīÐµÐ´": 1174,
      "ÑīÐµÐµ": 1175,
      "ÑīÐ¸Ðµ": 1176,
      "Ð·ÐºÐ¾": 1177,
      "Ð·Ð½Ð°Ð½Ð¸Ðµ": 1178,
      "Ð·Ð½Ð°Ðº": 1179,
      "Ð·ÑĢÐµÐ½Ð¸Ñı": 1180,
      "Ð»Ð¸ÑĩÐ½Ð¾": 1181,
      "Ð»Ð¸Ð·ÐºÐ¾": 1182,
      "ĠÑĢÐ°Ð½": 1183,
      "ĠÑĢÑĥÐº": 1184,
      "ÑįÑĤÐ¸": 1185,
      "ÑįÐ½ÑĤÐ¸Ð¼ÐµÐ¼": 1186,
      "ĠÐ½ÐµÑģÐ¾Ð¾ÑĤÐ²ÐµÑĤ": 1187,
      "ĠÐ½ÐµÐ¾Ð±ÑħÐ¾Ð´Ð¸Ð¼Ð¾": 1188,
      "ĠÐ½ÐµÑĥÐ´Ð¾Ð²Ð¾Ð»ÑĮÑģÑĤÐ²Ð¸Ñı": 1189,
      "ĠÐ½ÐµÐ½Ð°Ð²Ð¸": 1190,
      "Ð°Ð²Ð¸Ð»ÑĮ": 1191,
      "Ð°Ð²ÑĤÐ¾ÑĢÑĭ": 1192,
      "Ð°Ð²Ð´ÑĭÐ²Ð°ÑĤÑĮ": 1193,
      "Ð°Ð·Ð°Ð»": 1194,
      "Ð¶ÐµÐ½Ð¸Ñı": 1195,
      "ÑĪÑĮ": 1196,
      "ÐµÐ½Ð¸ÑĤÑĮ": 1197,
      "ĠÑĤÐ°ÐºÑĥÑİ": 1198,
      "ĠÑĤÐ°ÐºÐ¾Ð²Ð¾": 1199,
      "ĠÐºÐ°ÐºÐ¾Ðµ": 1200,
      "ĠÐºÐ°ÐºÐ¾Ð²Ð¾": 1201,
      "Ð¾ÑģÑĤÑĥÐ¿": 1202,
      "Ð¾ÑģÑĤÑĢÐ°Ð½": 1203,
      "ÑĤÐ¾ÑĢÑģÐºÐ¾Ð³Ð¾": 1204,
      "ĠÐ·Ð°Ð½Ð¸": 1205,
      "ĠÐ·Ð½Ð°": 1206,
      "ĠÐ·Ð°Ð´": 1207,
      "ĠÐ·Ð°Ð²Ð¸": 1208,
      "ĠÐ·Ð°Ð¸Ð¼": 1209,
      "Ð¾Ð¹Ð½Ð¾": 1210,
      "Ð¾Ð¹ÑģÑĤÐ²ÐµÐ½": 1211,
      "Ð¾Ð¹ÑģÑĤÐ²Ð¾Ð¼": 1212,
      "ĠÐ¿ÑĢÐµÐº": 1213,
      "ĠÐ¿ÑĢÐ¾ÑĩÐµÐ³Ð¾": 1214,
      "ĠÐ¿ÑĢÐµÐ¸Ð¼": 1215,
      "ĠÐ¾ÑĤÐ¿ÑĢ": 1216,
      "ĠÐ¾Ð±Ð°": 1217,
      "ĠÐ¾Ð±Ð¾Ð¸": 1218,
      "ĠÐ¾Ð±ÑīÐ¸Ð¼": 1219,
      "ĠÐ¾Ð±ÑĬ": 1220,
      "ĠÐ¾Ð±ÑĭÑĩÐ½Ð¾": 1221,
      "ĠÐ¾Ð±ÑīÐµÐ´": 1222,
      "ĠÐµÑīÐµ": 1223,
      "Ð¾Ð½Ð¾Ð²Ð¾Ð¹": 1224,
      "ÐµÐ¹ÐºÑĥ": 1225,
      "ÐµÐ½Ð½ÑĭÑħ": 1226,
      "ÐµÐ½Ð½ÑĭÐµ": 1227,
      "ÑģÐºÐ¾Ð¼Ñĥ": 1228,
      "ÑģÐºÐ¾Ð»ÑĮÐºÐ¾": 1229,
      "ÑģÐºÐ°Ð·Ð°Ð»": 1230,
      "Ð¾Ð¿Ð°Ð³": 1231,
      "ĠÐ´ÐµÐ»Ð°": 1232,
      "ĠÐ´ÐµÐ»Ð°ÑİÑĤ": 1233,
      "ĠÐ´ÐµÐ»Ð°Ñħ": 1234,
      "ĠÐ´ÐµÐ»Ð°ÐµÑĤÑģÑı": 1235,
      "Ð±ÑĥÐ¶Ð´": 1236,
      "Ð±Ð¾Ð»ÐµÐµ": 1237,
      "Ð¾Ð¶Ð½ÑĭÑħ": 1238,
      "Ð¾Ð¶Ð¸ÑĤÑĮ": 1239,
      "Ð¾Ð¶Ð´ÐµÐ½Ð¸Ñİ": 1240,
      "ÐµÑĢÐµÐ²": 1241,
      "ÑĤÐµÐ»ÑĮÐ½ÑĥÑİ": 1242,
      "Ð¾ÑģÑĥÐ´Ð¸Ðµ": 1243,
      "ĠÑģÑĥÐ´ÐµÐ¹": 1244,
      "ĠÑģÑĥÐ´ÑıÑĤ": 1245,
      "ĠÑģÑĥÐ´Ð¾Ð¿ÑĢÐ¾Ð¸Ð·Ð²Ð¾Ð´": 1246,
      "ĠÑģÑĥÐ´Ð¸ÑĤ": 1247,
      "Ð¾ÑĢÑĥÑİ": 1248,
      "Ð¾ÑĢÐµÑĤÐ¸ÐºÐ¸": 1249,
      "ĠÐ¿ÑĢÐ¸ÑģÐ¾": 1250,
      "ĠÐ¿ÑĢÐ¸ÑħÐ¾Ð´": 1251,
      "ĠÐ¿ÑĢÐ¸Ð²ÐµÑģÑĤÐ¸": 1252,
      "ĠÐ¿ÑĢÐ¸ÑģÑĤÑĢÐ°": 1253,
      "Ð¾Ð»ÑĮÑĪÐµÐ¹": 1254,
      "³Ð¸Ñħ": 1255,
      "ĠÑĤÐ¾ÑĩÐ½ÑĭÐµ": 1256,
      "ĠÑĤÐ¾ÑĩÐºÐ¸": 1257,
      "ĠÐ±ÑĥÐ´ÑĥÑī": 1258,
      "ĠÐ±Ð»Ð¸Ð·ÐºÐ¾": 1259,
      "ÑģÑĤÑĮÑİ": 1260,
      "Ð¾ÑĤÑĢÐµÐ½Ð¸Ðµ": 1261,
      "Ð¾ÑĤÐ½Ð¾ÑģÐ¸": 1262,
      "Ð¸Ð»ÑģÑı": 1263,
      "Ð¸Ð»ÐµÐ½": 1264,
      "Ð¸Ð¼ÑģÑı": 1265,
      "Ð¸Ð¼ÐµÐ»": 1266,
      "Ð¸Ð¼Ð°ÑĤÑĮ": 1267,
      "ĠÐ²ÑģÐµÐ¼": 1268,
      "ĠÐ²ÑģÐµÐ³": 1269,
      "ĠÐ»ÑĥÑĩ": 1270,
      "ĠÐ»Ð¸Ð½": 1271,
      "ĠÐ»ÑİÐ±": 1272,
      "Ð¾ÑĤÐ¾ÑĢÑĭÑħ": 1273,
      "Ð¾Ð¸Ð»Ð¸": 1274,
      "Ð½Ð°ÐµÐ¼": 1275,
      "Ð½Ð°ÑĩÐ¸": 1276,
      "Ð½Ð°ÑģÑĤÐ¾": 1277,
      "Ð½Ð°ÑģÑĤÑĢ": 1278,
      "ÑĩÐ¸Ð²Ñĭ": 1279,
      "ÑĩÐ¸Ð½ÐµÐ½Ð¸Ð¹": 1280,
      "ĠÑģÐ²Ð¾Ð¹ÑģÑĤÐ²ÐµÐ½": 1281,
      "ĠÐ°ÐºÑģÐµÑģ": 1282,
      "Ð¾Ð·Ð°ÐºÐ»ÑİÑĩ": 1283,
      "ÐµÐ¶Ð´ÐµÐ½Ñĭ": 1284,
      "ĠÐ´Ð¾ÐºÐ°Ð·Ð°ÑĤÑĮ": 1285,
      "Ð¾Ð¶Ð½Ð¾ÑģÑĤÑıÐ¼Ð¸": 1286,
      "ĠÑģÑĥÐ´ÑĮÑı": 1287,
      "ĠÑģÑĥÐ´ÑĮÑİ": 1288,
      "ĠÑģÑĥÐ´ÑĮÐµÐ¹": 1289,
      "ĠÑģÑĥÐ´ÑĮÑıÐ¼": 1290,
      "ĠÐ¾Ð½Ð¾": 1291,
      "ĠÐ¾Ð½Ð°": 1292,
      "ĠÑģÐ»ÑĥÑĪ": 1293,
      "ĠÑģÐ»Ð¾Ð²Ð°": 1294,
      "ÐµÐ½Ð¸ÑıÐ¼": 1295,
      "ĠÐĴÐ¾Ð¿ÑĢÐ¾Ñģ": 1296,
      "ĠÐĴÐ¾Ð·Ð¼Ð¾Ð¶Ð½Ð¾": 1297,
      "ĠÐĴÐ¼ÐµÑģÑĤ": 1298,
      "ÐµÐµÑģÑı": 1299,
      "ÑģÐ»ÐµÐ¹": 1300,
      "ÑģÐ»Ð¾Ð²Ð°": 1301,
      "ÑģÐ»ÑĥÑĪÐ¸": 1302,
      "ÑģÐ»Ð¾Ð²Ð¸Ñı": 1303,
      "ÑģÑĥÐ´Ð¾Ð¿ÑĢÐ¾Ð¸Ð·Ð²Ð¾Ð´": 1304,
      "ĠÑģÐ°Ð¼Ð¾Ð¼": 1305,
      "ĠÑģÐ°Ð¼Ð¾Ð³Ð¾": 1306,
      "ĠÑģÐ°Ð¼Ð¾Ð¹": 1307,
      "ĠÑģÐ°Ð¼Ð¸Ð¼": 1308,
      "ĠÑģÐ°Ð¼ÑĭÐ¹": 1309,
      "ĠÐ¸Ð¼ÐµÐ»": 1310,
      "ĠÐ¸Ð¼ÐµÑĤÑĮ": 1311,
      "ĠÐ¸Ð¼ÐµÐ½Ð½Ð¾": 1312,
      "ĠÐ¸ÑģÐºÑĢÐ¸Ð²": 1313,
      "ĠÐ½Ð°ÑĢÐ¾Ð´": 1314,
      "ĠÐ½Ð°ÑĥÐºÐ¸": 1315,
      "ĠÐ½Ð°ÑģÐºÐ¾Ð»ÑĮÐºÐ¾": 1316,
      "Ð°Ð²Ð»ÑıÑĤÑĮ": 1317,
      "Ð°Ð²Ð»ÑıÐµÑĤÑģÑı": 1318,
      "Ð°Ð²Ð»ÑıÑİÑī": 1319,
      "ĠÐ±ÑĭÐ²Ð°ÑİÑĤ": 1320,
      "ĠÐ±ÑĭÐ»Ð¾": 1321,
      "ĠÑĥÑģÑĤÑĢ": 1322,
      "ÑĢÑĥÐºÑĥ": 1323,
      "ÑĥÑīÐ°ÑĤÑĮ": 1324,
      "ÑĥÑīÐµÑģÑĤÐ²ÐµÐ½": 1325,
      "ĠÐ¸Ð·ÑĢÐµÐº": 1326,
      "ĠÐ¸Ð·Ð´Ð°Ð²": 1327,
      "ĠÐ¸ÑģÑĤÐ¸Ð½Ðµ": 1328,
      "ĠÐ¼ÑĭÑģÐ»ÐµÐ¹": 1329,
      "ĠÑįÑĤÐ¾Ð¼Ñĥ": 1330,
      "ĠÐ¿ÑĢÐµÐ´Ð¿Ð¾": 1331,
      "ĠÐ¿ÑĢÐµÐ´Ð²Ð¸Ð´ÐµÑĤÑĮ": 1332,
      "ĠÐ¿ÑĢÐµÐ´Ð¼ÐµÑĤ": 1333,
      "ĠÐ¸ÑģÐºÑĥÑģÑģÑĤÐ²Ð¾": 1334,
      "ĠÐ¸ÑģÐºÑĥÑģÑģÑĤÐ²Ñĥ": 1335,
      "ĠÐ¸ÑģÐºÑĥÑģÑģÑĤÐ²Ð°Ð¼": 1336,
      "Ð°ÑĢÑĭ": 1337,
      "Ð°ÑĢÐ½Ð¾Ð¹": 1338,
      "Ð½ÐµÑģÑĤÐ¸": 1339,
      "Ð½ÐµÐ¾Ð±ÑħÐ¾Ð´Ð¸Ð¼Ð¾": 1340,
      "Ð½ÑĤÐ¸ÑĩÐ½ÑĭÐµ": 1341,
      "ÑĢÐ°Ð·Ð±Ð¸ÑĢ": 1342,
      "Ð»Ð¾Ð³Ð¸ÑĩÐµÑģÐºÐ¸Ñħ": 1343,
      "ÑĤÐµÐ»ÑĮÐ½Ð¾ÑģÑĤÑĮ": 1344,
      "ĠÑĢÐµÑĩÑĮ": 1345,
      "ĠÐ³Ð¾Ð²Ð¾ÑĢÐ¸ÑĤ": 1346,
      "ĠÐ³Ð¾Ð²Ð¾ÑĢÐ¸Ð¼": 1347,
      "ĠÑģÐ¿Ð¾ÑģÐ¾Ð±Ð½Ð¾ÑģÑĤÐ¸": 1348,
      "ĠÑģÐ¿Ð¾ÑģÐ¾Ð±Ð½Ð¾ÑģÑĤÑıÐ¼Ð¸": 1349,
      "Ð°ÑĤÐµÐ»ÑĮÑģÑĤÐ²Ð°Ð¼Ð¸": 1350,
      "ĠÐ¾Ð´Ð½Ð¾": 1351,
      "ĠÐ¾Ð´Ð½Ð¾Ð¹": 1352,
      "ĠÐ¾Ð´Ð½Ð¾Ð³Ð¾": 1353,
      "ĠÐ²ÑĭÑĪÐµ": 1354,
      "ĠÐ²ÑĭÐ³": 1355,
      "ĠÐ²ÑĭÐ²Ð¾Ð´": 1356,
      "ĠÐ²ÑĭÐ¿Ð¾Ð»": 1357,
      "ĠÐ²ÑĭÐ½Ð¾ÑģÑı": 1358,
      "ĠÐ²ÑĭÑģÐºÐ°Ð·Ð°Ð»": 1359,
      "ĠÐ²ÑĭÑģÐ»ÑĥÑĪÐ¸": 1360,
      "ĠÑĤÐµÐ¾ÑĢÐµÑĤÐ¸ÐºÐ¸": 1361,
      "ĠÐ´ÑĢÑĥÐ³Ð¾Ð¼": 1362,
      "ĠÐ´ÑĢÑĥÐ³Ð¾Ðµ": 1363,
      "ĠÐ´ÑĢÑĥÐ³Ð¸Ñħ": 1364,
      "ÑģÑĤÐ²ÐµÐ½Ð½Ð¾Ð¹": 1365,
      "ÑģÑĤÐ²ÐµÐ½Ð½ÑĭÐ¼": 1366,
      "Ð¿ÑĢÐ¾ÑĤÐ¸Ð²Ð¾Ð¿Ð¾Ð»": 1367,
      "Ð¿ÑĢÐ¾Ð¸Ð·": 1368,
      "Ð¿ÑĢÐµÐ´Ð¸": 1369,
      "Ð¿ÑĢÐ°Ð²Ð¸Ð»ÑĮ": 1370,
      "Ð¿ÑĢÐ¾ÑģÑĤÑĢÐ°Ð½": 1371,
      "ĠÑĢÐ¾Ð´Ðµ": 1372,
      "ĠÑĢÐ°ÑģÐ¿Ð¾Ð»": 1373,
      "ĠÐ·Ð°ÐºÐ¾Ð½Ð°": 1374,
      "ĠÐ·Ð°ÐºÐ¾Ð½Ð¾Ð¼": 1375,
      "ĠÐ·Ð°ÐºÐ¾Ð½Ð¾Ð´Ð°ÑĤÐµÐ»ÑĮ": 1376,
      "ĠÐ·Ð°ÐºÐ¾Ð½Ð¾Ð´Ð°ÑĤÐµÐ»Ñı": 1377,
      "ĠÐ²ÑģÐµÑħ": 1378,
      "ĠÐ²ÑģÐµÑĨ": 1379,
      "ĠÑģÐ²Ð¾Ðµ": 1380,
      "ĠÑģÐ²Ð¾ÐµÐ³Ð¾": 1381,
      "ĠÐ´Ð¾ÐºÐ°Ð·Ð°ÑĤÐµÐ»ÑĮÑģÑĤÐ²Ðµ": 1382,
      "ĠÐ´Ð¾ÐºÐ°Ð·Ð°ÑĤÐµÐ»ÑĮÑģÑĤÐ²Ð°Ñħ": 1383,
      "ĠÐ¸Ð¼ÐµÐµÐ¼": 1384,
      "ÐĲÑĢÐµ": 1385,
      "ÐĲÐĴ": 1386,
      "ÐĲÑĢÐ¸ÑģÑĤÐ¾": 1387,
      "ÐĲÐ½ÑĤÐ¸ÑĩÐ½ÑĭÐµ": 1388,
      "ĠÐŁÐ¾Ð»ÑĮÐ·": 1389,
      "ĠÐŁÐ»Ð°ÑĤ": 1390,
      "ĠÐŁÑĢÐ¸ÑĩÐ¸": 1391,
      "ĠÐŁÐµÑĢÐµÐ²": 1392,
      "ÐµÑģÐ°": 1393,
      "ÐµÐ·Ð½ÑĭÐ¼": 1394,
      "Ð²ÑĭÑħ": 1395,
      "ĠÑģÐ¾ÑģÑĤÐ°Ð²Ð»": 1396,
      "ĠÑģÐ¾ÑģÑĤÐ°Ð²Ð»ÑıÐµÑĤÑģÑı": 1397,
      "ĠÑģÐ¸Ð»Ð»Ð¾Ð³Ð¸Ð·Ð¼Ð¾Ð¼": 1398,
      "ĠÑģÐ¸Ð»Ð»Ð¾Ð³Ð¸Ð·Ð¼Ð°Ñħ": 1399,
      "ĠÐ¿Ð¾ÑĩÐµÐ¼Ñĥ": 1400,
      "ĠÐ´Ð¾Ð»Ð¶Ð½Ð¾": 1401,
      "ĠÐ´Ð¾Ð»Ð¶Ð½ÑĭÐ¼": 1402,
      "ĠÑĩÐ°ÑģÑĤÑĮ": 1403,
      "ĠÑĩÐ°ÑģÑĤÐ¾": 1404,
      "ĠÑĩÐ°ÑģÑĤÐµÐ¹": 1405,
      "ĠÑĩÐ°ÑģÑĤÐ½ÑĭÑħ": 1406,
      "ÑĢÐ¸ÑĤÐ¾ÑĢÐ¸ÐºÐ¸": 1407,
      "ĠÑįÑĤÐ¸Ð¼": 1408,
      "ĠÑįÐ½ÑĤÐ¸Ð¼ÐµÐ¼Ð°": 1409,
      "ĠÑįÐ½ÑĤÐ¸Ð¼ÐµÐ¼Ñĭ": 1410,
      "ĠÑįÐ½ÑĤÐ¸Ð¼ÐµÐ¼Ð¾Ð¹": 1411,
      "ĠÐ·Ð½Ð°ÑĤÑĮ": 1412,
      "ĠÐ·Ð½Ð°Ð½Ð¸Ñı": 1413,
      "ĠÐ·Ð½Ð°Ð½Ð¸Ð¸": 1414,
      "ĠÐ·Ð½Ð°ÐºÐ¾Ð¼": 1415,
      "ĠÑĢÐµÑĪÐµÐ½Ð¸Ñı": 1416,
      "ĠÐ»ÑİÐ´ÐµÐ¹": 1417,
      "ĠÐ»ÑİÐ´ÑıÐ¼": 1418,
      "ĠÐ»ÑİÐ´ÑĮÐ¼Ð¸": 1419,
      "ĠÑģÐ¸ÑģÑĤÐµÐ¼Ñĭ": 1420,
      "ĠÑģÐ¸ÑģÑĤÐµÐ¼Ð°Ñħ": 1421,
      "ĠÐ¾ÑĢÐ°ÑĤÐ¾ÑĢÑģÐºÐ¾Ð¼Ñĥ": 1422,
      "Ð³Ð¾Ð²ÑĢÐµÐ¼": 1423,
      "ÑĨÐ°Ð½Ð¸Ñı": 1424,
      "ĠÑĢÐ¸ÑĤÐ¾ÑĢÐ¸ÐºÐ°": 1425,
      "ĠÑĢÐ¸ÑĤÐ¾ÑĢÐ¸ÑĩÐµÑģÐº": 1426,
      "ĠÐ¿Ð¾Ð»Ð°Ð³": 1427,
      "ĠÐ¿Ð¾Ð»Ð½Ð¾Ð¼": 1428,
      "ĠÐ¿Ð¾Ð»ÑĮÐ·Ñĭ": 1429,
      "ĠÐ¿Ð¾Ð»ÑĮÐ·ÑĥÑİÑĤ": 1430,
      "ĠÐ¿Ð¾Ð»ÑĮÐ·Ð¾Ð²Ð°ÑĤÑĮ": 1431,
      "ĠÐ²Ð¾Ð¿ÑĢÐ¾ÑģÑĭ": 1432,
      "ĠÐ´Ð¾ÑģÑĤÐ¾Ñı": 1433,
      "ĠÐ´Ð¾ÑģÑĤÐ¾Ð¹Ð½Ð¾": 1434,
      "ÑģÑĤÐ²Ð¸Ð¸": 1435,
      "ĠÐ¿ÑĢÐ°Ð²Ð´Ð¾Ð¿": 1436,
      "ĠÐ¿ÑĢÐ°Ð²Ð¾ÑģÑĥÐ´Ð¸Ðµ": 1437,
      "ĠÐ¿ÑĢÐ°Ð²Ð¸Ð»ÐµÐ½": 1438,
      "ĠÐ¿ÑĢÐ¾ÑĤÐ¸Ð²Ð¾Ð¿Ð¾Ð»Ð¾Ð¶Ð½ÑĭÑħ": 1439,
      "ĠÑĥÐ±ÐµÐ¶Ð´Ð°ÑĤÑĮ": 1440,
      "ĠÑĥÐ±ÐµÐ¶Ð´Ð°ÐµÐ¼": 1441,
      "ĠÐ¾ÑĤÐ½Ð¾ÑģÑıÑīÐµÐ³Ð¾ÑģÑı": 1442,
      "ĠÐ¾ÑĤÐ½Ð¾ÑģÑıÑīÐ¸ÐµÑģÑı": 1443,
      "ĠÐ¾ÑĤÐ½Ð¾ÑģÑıÑīÐµÐµÑģÑı": 1444,
      "Ð°Ð²ÐµÐ´Ð»Ð¸Ð²Ð¾Ðµ": 1445,
      "Ð³Ð½Ñĥ": 1446,
      "Ð³Ð½ÐµÐ²": 1447,
      "Ð³Ð¾ÑģÑĥÐ´Ð°ÑĢ": 1448,
      "ĠÑıÐ²Ð»Ñı": 1449,
      "ĠÐ¾Ð¿ÑĢÐ¾Ð²ÐµÑĢ": 1450,
      "ĠÐ¾Ð¿ÑĢÐ°Ð²Ð´ÑĭÐ²Ð°ÑĤÑĮ": 1451,
      "ĠÐ³Ð½ÐµÐ²": 1452,
      "ĠÐłÐ°Ð·": 1453,
      "ĠÐ¢Ð°ÐºÐ¾Ð¹": 1454,
      "ĠÐ¢Ð°ÐºÐ¸Ð¼": 1455,
      "ÑĤÐ°ÐºÐ¸": 1456,
      "ÑģÐ¾Ð¾Ð±ÑĢ": 1457,
      "Ð°ÑĤÐ¾ÑĩÐ½Ð¾Ð¹": 1458,
      "ÑĢÐµÑĩÐ¸": 1459,
      "Ð°Ð¶ÐµÐ½Ð¸Ñı": 1460,
      "ĠÑģÐ¾ÑĦ": 1461,
      "ĠÑģÐ¾Ð¾ÑĤÐ²ÐµÑĤ": 1462,
      "ĠÑģÐ¾ÑĩÐ¸Ð½ÐµÐ½Ð¸Ð¹": 1463,
      "ĠÑģÐ¾Ð±Ð¾Ð¹": 1464,
      "ĠÐ¿Ð¾ÑģÑĤÑĥÐ¿": 1465,
      "ĠÐ¿Ð¾ÑģÑĤÐ°Ð½Ð¾Ð²": 1466,
      "ĠÐ½Ð°ÑħÐ¾Ð¶Ð´ÐµÐ½Ð¸Ñİ": 1467,
      "ĠÐºÐ°Ð¶Ð´Ð¾Ð³Ð¾": 1468,
      "ĠÐºÐ°Ð¶Ð´Ð¾Ð¹": 1469,
      "Ð¾Ð±ÑīÐµ": 1470,
      "Ð¾Ð±ÑīÐµÐ³Ð¾": 1471,
      "Ð¾Ð±ÑīÐ½Ð¾ÑģÑĤÐ¸": 1472,
      "Ð¾Ð±ÑīÐ½Ð¾ÑģÑĤÑĮ": 1473,
      "ĠÐ¼Ð¾Ð¶ÐµÐ¼": 1474,
      "ĠÑĢÐ°Ð·Ð²Ð¸": 1475,
      "ĠÑĢÐ°Ð·Ð»Ð¸Ñĩ": 1476,
      "ĠÑĢÐ°Ð·Ð±Ð¸ÑĢ": 1477,
      "ĠÑĢÐ°Ð·Ð¼ÑĭÑĪ": 1478,
      "ĠÐ¾ÑĤÐ´ÐµÐ»ÑĮÐ½Ð¾Ð¹": 1479,
      "ĠÐ¾ÑĤÐ´ÐµÐ»ÑĮÐ½ÑĭÐ¼": 1480,
      "ĠÐ¿ÑĢÐ¸ÑĢÐ¾Ð´Ñĭ": 1481,
      "ĠÐ³Ð¾Ð²Ð¾ÑĢÑı": 1482,
      "ĠÐ¾Ð±Ð»Ð°ÑģÑĤÑĮ": 1483,
      "Ð³Ð¾Ð²Ð¾ÑĢÑı": 1484,
      "ĠÐ¿ÑĢÐ¾ÑĤÐ¸Ð²Ð¾Ð¿Ð¾Ð»Ð¾Ð¶Ð½Ð¾Ðµ": 1485,
      "ĠÐ¿ÑĢÐ¾ÑĤÐ¸Ð²Ð¾Ð¿Ð¾Ð»Ð¾Ð¶Ð½Ð¾ÑģÑĤÐ¸": 1486,
      "ĠÐ¿ÑĢÐ¾ÑĤÐ¸Ð²Ð¾Ð¿Ð¾Ð»Ð¾Ð¶Ð½Ð¾ÑģÑĤÐµÐ¹": 1487,
      "ĠÐ¿ÑĢÐ¾ÑĤÐ¸Ð²Ð¾Ð¿Ð¾Ð»Ð¾Ð¶Ð½Ð¾ÑģÑĤÑıÐ¼Ð¸": 1488,
      "ĠÑĤÑıÐ¶ÑĥÑīÐµÐ³Ð¾ÑģÑı": 1489,
      "ĠÑĤÑıÐ¶ÑĥÑīÐ¸Ð¼ÑģÑı": 1490,
      "ĠÐ´Ð¸Ð°Ð»ÐµÐºÑĤÐ¸ÐºÐ¸": 1491,
      "ĠÐ´Ð¸Ð°Ð»ÐµÐºÑĤÐ¸ÐºÐ°": 1492,
      "¿ÑĢÐµÐ¼ÐµÐ½Ð½Ð¾": 1493,
      "ĠÐĺÐ·": 1494,
      "Ð°ÐµÐ¼Ð¾Ð¼Ñĥ": 1495,
      "Ð°ÐµÐ¼ÑĭÑħ": 1496,
      "ÑĢÐ°ÑģÐ½ÐµÐµ": 1497,
      "ÑĢÐ°ÑģÑģÑĥÐ¶Ð´": 1498,
      "ÑĢÐ°ÑģÐ¿ÑĢÐ¾ÑģÑĤÑĢÐ°Ð½": 1499,
      "Ð²ÐµÑģÑĤÐ½ÑĭÐ¹": 1500,
      "ĠÑģÐºÐ¾ÑĢÑĥÑİ": 1501,
      "ĠÐ¿ÐµÑĢÐ²Ð¾Ð³Ð¾": 1502,
      "ĠÐ²ÐµÑīÐ¸": 1503,
      "ĠÐ²ÐµÑīÑĮ": 1504,
      "ĠÐ²ÐµÑīÐ°Ñħ": 1505,
      "ĠÐ²Ð°Ð¶Ð½ÑĭÐ¹": 1506,
      "ĠÐ¾ÑģÐ½Ð¾Ð²Ð°Ð½": 1507,
      "ÑģÑĤÐ²ÑĥÑİÑĤÑģÑı": 1508,
      "Ð¿Ð¾Ð»ÐµÐ·Ð½ÑĭÐ¼": 1509,
      "Ð¿ÐµÑĢÐµÐ´": 1510,
      "Ð¿ÐµÑĢÐ²Ð¾Ð¼": 1511,
      "Ð¿ÐµÑĢÐ²ÑĭÑħ": 1512,
      "ÑįÑĤÐ¾Ð¼Ñĥ": 1513,
      "Ð°Ð²Ð¸ÑĤÑĮ": 1514,
      "ĠÐ·Ð°Ð±Ð¾ÑĤÑı": 1515,
      "ĠÑģÑĥÐ´ÐµÐ±Ð½ÑĭÑħ": 1516,
      "ĠÑģÑĥÐ´ÐµÐ±Ð½ÑĭÐµ": 1517,
      "ĠÑģÑĥÐ´ÐµÐ±Ð½Ð¾Ð³Ð¾": 1518,
      "Ð¾ÑĢÐ°ÑĤÐ¾ÑĢÑģÐºÐ¾Ð³Ð¾": 1519,
      "ĠÐ±Ð¾Ð»ÑĮÑĪÐµÐ¹": 1520,
      "ĠÐ»Ð¸ÑĪÑĮ": 1521,
      "ÑģÑĥÐ´ÐµÐ±Ð½ÑĭÐµ": 1522,
      "ĠÑĥÐ¼Ð¾Ð·Ð°ÐºÐ»ÑİÑĩ": 1523,
      "ĠÐ¿ÑĢÐµÐ´Ð¾ÑģÑĤÐ°Ð²Ð»ÑıÑİÑĤ": 1524,
      "ĠÐ¿ÑĢÐµÐ´Ð¾ÑģÑĤÐ°Ð²Ð»ÑıÑĤÑĮ": 1525,
      "ĠÐ¿ÑĢÐµÐ´Ð¾ÑģÑĤÐ°Ð²Ð¸ÑĤÑĮ": 1526,
      "ĠÐ¿ÑĢÐµÐ´ÑģÑĤÐ°Ð²Ð»ÑıÐµÑĤ": 1527,
      "ĠÑħÐ¾ÑĢÐ¾ÑĪÐ¸Ð¼": 1528,
      "ĠÐ¾Ð±Ð»Ð°Ð´Ð°ÑİÑĤ": 1529,
      "ĠÑģÐ»ÑĥÑĩÐ°Ðµ": 1530,
      "ĠÑĢÐ°ÑģÑģÐ¼Ð¾ÑĤÑĢÐµÐ½Ð¸Ðµ": 1531,
      "ĠÑĢÐ°ÑģÑģÑĥÐ¶Ð´Ð°ÑĤÑĮ": 1532,
      "ĠÐ¿Ð¾Ð»ÐµÐ·Ð½Ð¾": 1533,
      "ĠÐ¿Ð¾Ð»ÐµÐ·Ð½Ð°": 1534,
      "ĠÐ¿Ð¾Ð»ÐµÐ·Ð½Ð¾Ðµ": 1535,
      "ĠÐ¿Ð¾Ð´Ð¾Ð±Ð¸Ðµ": 1536,
      "ĠÐ¿Ð¾Ð´Ð¾Ð±Ð½ÑĭÐµ": 1537,
      "ĠÐ¿Ð¾Ð´Ð¾Ð±Ð½Ð¾Ðµ": 1538,
      "ĠÐ½ÐµÐºÐ¾ÑĤÐ¾ÑĢÑĭÑħ": 1539,
      "ĠÐ´Ð¾ÑģÑĤÐ°ÑĤÐ¾ÑĩÐ½Ð¾": 1540,
      "ĠÑıÑģÐ½Ð¾ÑģÑĤÑĮÑİ": 1541,
      "ĠÑģÐ¾Ð±ÑģÑĤÐ²ÐµÐ½Ð½Ð¾Ð¹": 1542,
      "ĠÑģÐ¾Ð±ÑģÑĤÐ²ÐµÐ½Ð½Ð¾Ð³Ð¾": 1543,
      "ĠÑģÐ¾Ð±ÑģÑĤÐ²ÐµÐ½Ð½ÑĥÑİ": 1544,
      "ĠÐ½Ð°ÑħÐ¾Ð´ÑıÑĤ": 1545,
      "ĠÐ½Ð°ÑħÐ¾Ð´Ð¸ÑĤÑģÑı": 1546,
      "ĠÐ½Ð°ÑħÐ¾Ð´ÑĩÐ¸Ð²Ñĭ": 1547,
      "ĠÐ³Ð¾ÑģÑĥÐ´Ð°ÑĢÑģÑĤÐ²ÐµÐ½Ð½Ð¾Ð¹": 1548,
      "ĠÐ¸ÑģÑģÐ»ÐµÐ´Ð¾Ð²Ð°Ð½Ð¸Ðµ": 1549,
      "ĠÐ¾Ð±ÑĢÐ°ÑīÐ°ÑİÑĤ": 1550,
      "ĠÐ¾Ð±ÑĢÐ°ÑīÐµÐ½Ð¸Ñı": 1551,
      "ĠÐ¾Ð±ÑĢÐ°ÑīÐ°ÐµÐ¼ÑĭÑħ": 1552,
      "ÐĵÐĲ": 1553,
      "ÐĵÐĽ": 1554,
      "ĠÑĨÐµÐ»ÑĮ": 1555,
      "ĠÑĨÐµÐ»Ð¸": 1556,
      "ĠÐĹÐ°ÐºÐ¾Ð½": 1557,
      "ĠÐĹÐ´ÐµÑģÑĮ": 1558,
      "ĠÐľÐµÐ¶Ð´Ñĥ": 1559,
      "ĠÐĿÐµÑĥÐ´Ð¾Ð²": 1560,
      "ÐµÑģÑĤÐ²ÑĥÐµÑĤ": 1561,
      "ÐµÑģÑĤÐ²Ð¾Ð²Ð°Ð½Ð¸Ñı": 1562,
      "Ð¸Ð·ÑĢÐµÐº": 1563,
      "Ð¸Ð·Ð²ÐµÑģÑĤÐ½ÑĭÐ¹": 1564,
      "ÑıÑıÑģÑĮ": 1565,
      "Ð²Ð¾Ð»Ñĥ": 1566,
      "Ð²Ð¾Ð»ÑıÑı": 1567,
      "Ð»ÑİÐ´ÐµÐ¹": 1568,
      "ĠÑģÑĥÑīÐ½Ð¾ÑģÑĤÐ¸": 1569,
      "ĠÑģÑĥÑīÐµÑģÑĤÐ²ÑĥÐµÑĤ": 1570,
      "Ð´ÐµÐ»Ð°ÐµÑĤÑģÑı": 1571,
      "Ð´Ð¾ÑģÑĤÐ¸Ð³": 1572,
      "Ð´Ð¾ÑģÑĤÐ°ÑĤÐ¾ÑĩÐ½Ð¾Ð¹": 1573,
      "Ð´Ð¾ÐºÐ°Ð·Ð°Ð½Ð¾": 1574,
      "Ð´Ð¾ÐºÐ°Ð·Ð°ÑĤÐµÐ»ÑĮÑģÑĤÐ²Ð°Ð¼Ð¸": 1575,
      "Ð´Ð¾Ð»Ð¶Ð½Ð¾": 1576,
      "Ð´Ð¾Ð»Ð¶ÐµÐ½": 1577,
      "ĠÐ¿Ð¾Ð²Ð¾Ð´Ñĥ": 1578,
      "ĠÐ¿Ð¾Ð²ÐµÑģÑĤÐ²Ð¾Ð²Ð°Ð½Ð¸Ñı": 1579,
      "ĠÐ¿Ð¾ÑĢÑıÐ´": 1580,
      "Ð°ÐºÐ¾Ð²Ñĭ": 1581,
      "Ð°ÐºÐ¾Ð²Ð¾Ð¹": 1582,
      "Ð½Ð¾ÑģÑıÑĤÑģÑı": 1583,
      "Ð½Ð¾ÑģÑĤÑĮÑİ": 1584,
      "ĠÐ²Ð¾Ð¾Ð±ÑīÐµ": 1585,
      "ĠÐ²Ð¾Ð·Ð¼Ð¾Ð¶Ð½Ð¾ÑģÑĤÐ¸": 1586,
      "ĠÐ²Ð¾Ð·Ð¼Ð¾Ð¶Ð½Ð¾ÑģÑĤÑĮ": 1587,
      "Ð¾Ð±ÑĢÐ°Ð·Ð¾Ð¼": 1588,
      "Ð¾Ð±ÑĢÐ°Ð·Ð¾Ð²Ð°Ð½Ð¸Ñı": 1589,
      "ÑĢÐ¸Ð²Ð°ÐµÐ¼Ð¾Ð¼Ñĥ": 1590,
      "ÑģÑĤÐ²ÑĥÑİÑīÐ¸Ð¼": 1591,
      "ÑģÑĤÐ²ÑĥÑİÑīÐµÐµ": 1592,
      "Ð¿ÑĢÐ¸ÑĩÐ°ÑģÑĤ": 1593,
      "Ð¿ÑĢÐ¸Ð·Ð½Ð°Ðº": 1594,
      "ĠÐ¼Ð¾Ð³Ð»Ð¸": 1595,
      "ĠÐ¼Ð¾Ð³ÑĥÑĤ": 1596,
      "Ð·Ð°ÐºÐ¾Ð½Ð¾Ð´Ð°ÑĤÐµÐ»ÑĮ": 1597,
      "ÐµÐ´Ð¸Ð½Ð¸ÑĤ": 1598,
      "ĠÐ¿ÑĢÐ¾Ð¸Ð·Ð²Ð¾Ð»Ñĥ": 1599,
      "ĠÐ¿ÑĢÐ¾Ð¸Ð·Ð½Ð¾ÑģÑıÑĤÑģÑı": 1600,
      "ÐµÑĢÐ¶Ð°Ð½Ð¸Ðµ": 1601,
      "ÐµÑĢÐ¶Ð¸Ð²Ð°ÑĤÑĮ": 1602,
      "ĠÐ¿ÑĢÐ¸ÑĩÐ¸Ð½Ñĭ": 1603,
      "ĠÐ¿ÑĢÐ¸ÑĩÐ¸Ð½Ð°": 1604,
      "ĠÐ»ÐµÐ³ÐºÐ¾": 1605,
      "ĠÐ»ÐµÐ³ÑĩÐµ": 1606,
      "ÑĩÐ¸ÑĤÐ°ÑİÑĤ": 1607,
      "ÑĢÐ°Ð½Ð½Ð¸Ñħ": 1608,
      "ĠÐĴÑģÐµÐ¾Ð±ÑīÐ½Ð¾ÑģÑĤÑĮ": 1609,
      "ÑģÑĥÐ´ÑĮÐµ": 1610,
      "ÑģÑĥÐ´ÑĮÐ¸": 1611,
      "ĠÐ½Ð°Ð¸Ð±Ð¾Ð»ÐµÐµ": 1612,
      "ĠÐ½Ð°Ð¸Ð±Ð¾Ð»ÑĮÑĪÐµÐ¹": 1613,
      "ĠÐ¸Ð·Ð²ÐµÑģÑĤÐ½Ð¾Ð¹": 1614,
      "ĠÐ¸Ð·Ð²ÐµÑģÑĤÐ½Ð¾Ðµ": 1615,
      "ĠÐºÐ°ÑģÐ°ÑİÑīÐ¸ÑħÑģÑı": 1616,
      "ĠÐºÐ°ÑģÐ°ÑİÑīÐ¸ÐµÑģÑı": 1617,
      "ĠÐ¾Ð´Ð¸Ð½Ð°ÐºÐ¾Ð²Ñĭ": 1618,
      "ĠÑĤÐµÑħÐ½Ð¸ÑĩÐµÑģÐºÐ¸Ñħ": 1619,
      "ĠÑģÐ»ÑĥÑĩÐ°ÑıÐ¼": 1620,
      "ĠÑģÐ»ÑĥÑĩÐ°ÑıÑħ": 1621,
      "ĠÐŁÐ¾ÑĩÐµÐ¼Ñĥ": 1622,
      "ĠÐŁÐ¾ÑįÑĤÐ¾Ð¼Ñĥ": 1623,
      "ĠÐ·Ð½Ð°Ð½Ð¸Ñİ": 1624,
      "ĠÐ·Ð½Ð°Ð½Ð¸Ð¹": 1625,
      "Ð¾Ð·Ð¼Ð¾Ð¶Ð½Ð°Ñı": 1626,
      "ĠÐ¿Ð¾Ð´Ð´Ð°ÐµÑĤÑģÑı": 1627,
      "ĠÐ¿Ð¾Ð´Ð´ÐµÑĢÐ¶Ð¸Ð²Ð°ÑĤÑĮ": 1628,
      "ĠÐ¿Ð¾Ð»ÑĮÐ·ÑĥÐµÑĤÑģÑı": 1629,
      "ĠÐ³Ð»Ð°Ð²Ð½ÑĭÐ¼": 1630,
      "ĠÐ³Ð»Ð°Ð²Ð½Ð°Ñı": 1631,
      "ÑģÐ¾Ð¾ÑĤÐ²ÐµÑĤÑģÑĤÐ²Ð¸Ð¸": 1632,
      "ÑĢÐµÑĩÐµÐ¹": 1633,
      "ÑĢÐµÑĩÐ°Ñħ": 1634,
      "ĠÐ·Ð°Ð¿ÑĢÐµÑīÐµÐ½Ð¸Ðµ": 1635,
      "ĠÐ·Ð°Ð¿ÑĢÐµÑīÐ°ÐµÑĤ": 1636,
      "ĠÑĢÐ°ÑģÑģÐ¼Ð°ÑĤÑĢÐ¸Ð²Ð°ÑĤÑĮ": 1637,
      "ĠÑĢÐ°ÑģÑģÐ¼Ð°ÑĤÑĢÐ¸Ð²Ð°ÐµÐ¼Ð¾Ð¼Ñĥ": 1638,
      "ĠÑĢÐ°ÑģÑģÑĥÐ¶Ð´ÐµÐ½Ð¸ÑıÑħ": 1639,
      "ĠÑĦÐ°ÐºÑĤÐ°": 1640,
      "ÑģÐ¿Ð¾ÑģÐ¾Ð±Ð½Ð¾ÑģÑĤÑĮÑİ": 1641,
      "ĠÑģÐ¾Ð²ÐµÑĢÑĪÐ¸ÑĤÑģÑı": 1642,
      "ĠÑģÐ¾Ð²ÐµÑĢÑĪÐ¸Ð»ÑģÑı": 1643,
      "ĠÑĤÐ¾Ð»Ð¿Ðµ": 1644,
      "ĠÑĤÐ¾Ð»Ð¿Ð¾Ð¹": 1645,
      "ĠÐ¾ÑģÑĤÐ°Ð»ÑĮÐ½ÑĭÑħ": 1646,
      "ĠÐ¾ÑģÑĤÐ°Ð»ÑĮÐ½Ð¾Ðµ": 1647,
      "ĠÑħÐ°ÑĢÐ°ÐºÑĤÐµÑĢÐ°": 1648,
      "355": 1649,
      "Kai": 1650,
      "Trpoo": 1651,
      "ufjKai": 1652,
      "±Ð»ÑİÐ´Ð°Ñı": 1653,
      "ÐĺÐĵÐĲ": 1654,
      "ÐļÐĿ": 1655,
      "Ð¢Ð¾Ð¿Ð¸ÐºÐµ": 1656,
      "ĠÑģÑĤÐµÐ¿ÐµÐ½Ð¸": 1657,
      "ĠÑģÑĤÑĢÐ¾Ð¸Ð»Ð¸": 1658,
      "Ġ1978": 1659,
      "Ġname": 1660,
      "Ð¾ÑīÑĮÑİ": 1661,
      "Ð¾ÑıÑĤÐ½Ð¾": 1662,
      "Ð¾ÑĨÐµÐ½Ð¸ÑĤÑĮ": 1663,
      "ĠÐ¡Ð°Ð¼Ð°Ñı": 1664,
      "ÑĤÑĭÐ¼Ð¸": 1665,
      "ÑģÑĥÐ°ÑĢÑĭ": 1666,
      "ÑģÐ²ÑıÐ·": 1667,
      "ÑģÐ°Ð¼ÑĭÐµ": 1668,
      "ÑģÐ¿ÑĢÐ°Ð²ÐµÐ´Ð»Ð¸Ð²Ð¾Ðµ": 1669,
      "ÑģÐ¸Ð»Ð»Ð¾Ð³Ð¸Ð·Ð¼Ð¾Ð²": 1670,
      "ÑģÐ¸Ð»ÑĮÐ½ÐµÐµ": 1671,
      "ÑģÑĩÐ¸ÑĤÐ°ÑĤÑĮÑģÑı": 1672,
      "Ð¸ÑģÑĤÐ¸ÐºÐ¸": 1673,
      "Ð¸ÑĩÐ½Ð¾ÑģÑĤÐ¸": 1674,
      "Ð½ÐµÐ¿ÑĢÐµÐ¼ÐµÐ½Ð½Ð¾": 1675,
      "Ð½Ð°Ð±Ð»ÑİÐ´Ð°Ñı": 1676,
      "Ð½Ð°ÑħÐ¾Ð´ÑĩÐ¸": 1677,
      "Ð½ÐµÐºÐ¾ÑĤÐ¾ÑĢÑĭÑħ": 1678,
      "ÑĢÐ¾Ð¸ÑĤÑĮ": 1679,
      "ÑıÑīÐµÐ³Ð¾": 1680,
      "ÑĭÐ»Ð¾Ðº": 1681,
      "Ð²Ð¾Ð·Ð²ÐµÑģÑĤÐ¸": 1682,
      "Ð²Ð¾ÑĢÐ¸ÑĤÐµÐ»ÑĮÐ½Ð¾ÑģÑĤÑĮ": 1683,
      "Ð²Ð¾Ð¿ÑĢÐ¾ÑģÐ¾Ð²": 1684,
      "Ð²ÐµÑīÐµÐ¹": 1685,
      "Ð²ÑģÐµÐ¾Ð±ÑīÐ½Ð¾ÑģÑĤÐ¸": 1686,
      "Ð»ÐµÑĤÐ²Ð¾ÑĢÐ¸ÑĤÐµÐ»ÑĮÐ½Ð¾ÑģÑĤÑĮ": 1687,
      "Ð»Ð°ÑģÐ¸ÑĤÑģÑı": 1688,
      "ÑĩÐ¸Ð»Ð¾": 1689,
      "ĠÑģÐ¼ÑĥÑīÐ°ÑĤÑĮ": 1690,
      "ĠÑģÐ¾Ð´ÐµÑĢÐ¶Ð°Ð½Ð¸Ðµ": 1691,
      "ĠÑģÐ¾Ð·Ð½Ð°Ð½Ð¸Ðµ": 1692,
      "ĠÑģÐ¾Ð³Ð»Ð°ÑģÐ¸ÑĤÑģÑı": 1693,
      "ĠÑģÐ½Ð¾ÑĪÐµÐ½Ð¸Ð¹": 1694,
      "ĠÑģÐ´ÐµÐ»Ð°ÑĤÑĮÑģÑı": 1695,
      "Ð´Ð¾Ð»Ð³Ð¾Ð²ÑĢÐµÐ¼": 1696,
      "Ð´ÑĢÑĥÐ³Ð¸Ðµ": 1697,
      "ĠÐ¸Ð½ÑĤÐµÑĢÐµÑģÐ°": 1698,
      "ĠÐ¿Ð¾Ð±ÐµÐ¶Ð´ÐµÐ½Ñĭ": 1699,
      "ĠÐ¿Ð¾Ð¼Ð¾ÑīÑĮÑİ": 1700,
      "ĠÐ¿Ð¾Ð½Ð¸Ð¼Ð°ÑĤÑĮ": 1701,
      "ĠÐ¿Ð¾Ð·Ð²Ð¾Ð»ÑıÑı": 1702,
      "ĠÐ¿Ð¾ÑĢÐ¸ÑĨÐ°Ð½Ð¸Ñı": 1703,
      "ĠÐ½ÐµÐ¼Ð½Ð¾Ð³Ð¸Ñħ": 1704,
      "ĠÐ½ÐµÐ²Ð¾Ð·Ð¼Ð¾Ð¶Ð½Ð°Ñı": 1705,
      "ĠÐ½Ð°Ð»Ð¸ÑĩÐ½Ð¾ÑģÑĤÐ¸": 1706,
      "ĠÐ½ÐµÐ·Ð½Ð°ÑĩÐ¸": 1707,
      "ĠÐ½Ð°Ð¹ÑĤÐ¸": 1708,
      "ĠÐ½Ð°Ð¿ÑĢÐ¸Ð¼ÐµÑĢ": 1709,
      "ĠÐ²ÑģÑıÐºÐ¾Ð³Ð¾": 1710,
      "ĠÐ²Ð½Ð¸Ð¼Ð°Ð½Ð¸Ñı": 1711,
      "ĠÐ²ÐµÑĢÐ¾ÑıÑĤÐ½Ð¾": 1712,
      "ĠÐ²Ð¾Ð·Ð±ÑĥÐ¶Ð´": 1713,
      "ĠÐ²ÐµÐ·Ð´Ðµ": 1714,
      "ĠÐ²ÑĢÐµÐ¼Ñı": 1715,
      "ĠÐ²Ð¾Ð·Ð¼Ð¾Ð¶Ð½Ñĭ": 1716,
      "ĠÐºÐ¾Ð²Ð°ÑĢÐ½Ð¾Ð¹": 1717,
      "ĠÐºÐ¾Ð½ÐµÑĩÐ½Ð¾": 1718,
      "ĠÐºÐ¾ÑĤÐ¾ÑĢÐ¾Ð¹": 1719,
      "ĠÑĤÑĢÑĥÐ´Ð½Ð¾": 1720,
      "ÐºÐ°ÑģÐ°ÑİÑĤÑģÑı": 1721,
      "ÐºÐ¾ÑĤÐ¾ÑĢÑĭÐµ": 1722,
      "ÐºÐ»ÐµÐ²ÐµÑĤÐ°": 1723,
      "ĠÐ´Ð²Ð¸Ð¶ÐµÐ½Ð¸Ñı": 1724,
      "Ð¾Ð±Ð²Ð¸Ð½ÑıÑĤÑĮ": 1725,
      "Ð¾Ð²Ð¾Ð´ÑģÑĤÐ²ÑĥÑİÑĤÑģÑı": 1726,
      "ĠÑĩÐ¸ÑģÑĤÐ¾": 1727,
      "ĠÑĩÑĥÐ¶Ð´ÑĭÑħ": 1728,
      "ĠÑĩÑĥÐ²ÑģÑĤÐ²Ð¾": 1729,
      "ĠÐ¾ÑģÑĤÐ°Ð²Ð»ÑıÑĤÑĮ": 1730,
      "Ð¾Ð´Ð¸Ð½Ð°ÐºÐ¾Ð²Ð¾Ð¹": 1731,
      "Ð¾Ð´Ð¾Ð±ÑĢÑıÑİÑĤ": 1732,
      "Ð¿Ð¾ÑģÑĤÑĢÐ¾Ð¸ÑĤÑĮ": 1733,
      "Ð¿Ð¾ÑģÑĭÐ»Ð¾Ðº": 1734,
      "Ð¿Ð¾ÐºÐ°Ð·Ð°Ð½Ð¸Ñı": 1735,
      "Ð¿Ð¾Ð·Ð½Ð°ÐµÐ¼": 1736,
      "Ð¿Ð¾Ð´Ð»ÐµÐ¶Ð°ÑīÐ¸Ðµ": 1737,
      "ĠÐ¼ÐµÑģÑĤÐ°": 1738,
      "ĠÐ¼ÐµÑĪÐ°ÑİÑĤ": 1739,
      "Ð»Ð¸ÑĩÐ½Ð¾ÑģÑĤÐµÐ¹": 1740,
      "ĠÑĢÐ°Ð½ÑĮÑĪÐµ": 1741,
      "ĠÑĢÑĥÐºÐ¾Ð²Ð¾Ð´ÑģÑĤÐ²ÑĥÑİÑĤÑģÑı": 1742,
      "ÑįÑĤÐ¸Ñħ": 1743,
      "ÑįÐ½ÑĤÐ¸Ð¼ÐµÐ¼Ð°": 1744,
      "ĠÐ½ÐµÑģÐ¾Ð¾ÑĤÐ²ÐµÑĤÑģÑĤÐ²ÑĥÑİÑīÐ¸Ð¼": 1745,
      "ĠÐ½ÐµÐ½Ð°Ð²Ð¸ÑģÑĤÐ¸": 1746,
      "Ð¾ÑģÑĤÑĥÐ¿Ð½ÑĭÐ¼": 1747,
      "ĠÐ·Ð°Ð½Ð¸Ð¼Ð°ÐµÑĤÑģÑı": 1748,
      "ĠÐ·Ð½Ð°ÑĩÐ¸Ð»Ð¾": 1749,
      "ĠÐ·Ð°Ð´Ð°ÑĩÐ¸": 1750,
      "ĠÐ·Ð°Ð²Ð¸ÑģÑĤÑĮ": 1751,
      "ĠÐ·Ð°Ð¸Ð¼ÑģÑĤÐ²Ð¾Ð²Ð°ÑĤÑĮ": 1752,
      "ĠÐ¿ÑĢÐµÐºÑĢÐ°ÑģÐ½ÐµÐµ": 1753,
      "ĠÐ¿ÑĢÐµÐ¸Ð¼ÑĥÑīÐµÑģÑĤÐ²ÐµÐ½": 1754,
      "ĠÐ¾ÑĤÐ¿ÑĢÐ°Ð²Ð»ÑıÑİÑī": 1755,
      "ĠÐ¾Ð±Ð¾Ð¸Ð¼": 1756,
      "ĠÐ¾Ð±ÑĬÐµÐ¼Ðµ": 1757,
      "ĠÐ¾Ð±ÑīÐµÐ´Ð¾ÑģÑĤÑĥÐ¿Ð½ÑĭÐ¼": 1758,
      "Ð¾Ð¿Ð°Ð³Ðµ": 1759,
      "ĠÑģÑĥÐ´Ð¾Ð¿ÑĢÐ¾Ð¸Ð·Ð²Ð¾Ð´ÑģÑĤÐ²Ð°": 1760,
      "ĠÐ¿ÑĢÐ¸ÑģÐ¾ÐµÐ´Ð¸Ð½Ð¸ÑĤ": 1761,
      "ĠÐ¿ÑĢÐ¸ÑħÐ¾Ð´Ð¸ÑĤÑģÑı": 1762,
      "ĠÐ¿ÑĢÐ¸ÑģÑĤÑĢÐ°ÑģÑĤÐ½Ð¾": 1763,
      "ĠÐ±ÑĥÐ´ÑĥÑīÐµÐ³Ð¾": 1764,
      "Ð¾ÑĤÐ½Ð¾ÑģÐ¸ÑĤÑģÑı": 1765,
      "ĠÐ²ÑģÐµÐ³Ð´Ð°": 1766,
      "ĠÐ»ÑĥÑĩÑĪÐµ": 1767,
      "ĠÐ»Ð¸Ð½ÐµÐ¹ÐºÑĥ": 1768,
      "ĠÐ»ÑİÐ±Ð²Ð¸": 1769,
      "Ð½Ð°ÑģÑĤÐ¾ÑıÑīÐµÐ³Ð¾": 1770,
      "Ð½Ð°ÑģÑĤÑĢÐ¾ÐµÐ½Ð¸Ðµ": 1771,
      "ĠÑģÐ²Ð¾Ð¹ÑģÑĤÐ²ÐµÐ½Ð½ÑĭÐ¼Ð¸": 1772,
      "ĠÐ°ÐºÑģÐµÑģÑģÑĥÐ°ÑĢÑĭ": 1773,
      "ĠÑģÐ»ÑĥÑĪÐ°ÑĤÐµÐ»Ñı": 1774,
      "ĠÐĴÐ¾Ð¿ÑĢÐ¾ÑģÑĭ": 1775,
      "ĠÐĴÐ¾Ð·Ð¼Ð¾Ð¶Ð½Ð¾ÑģÑĤÑĮ": 1776,
      "ĠÐĴÐ¼ÐµÑģÑĤÐµ": 1777,
      "ÑģÑĥÐ´Ð¾Ð¿ÑĢÐ¾Ð¸Ð·Ð²Ð¾Ð´ÑģÑĤÐ²Ð¾": 1778,
      "ĠÐ¸ÑģÐºÑĢÐ¸Ð²Ð¸Ð»": 1779,
      "ĠÐ½Ð°ÑĢÐ¾Ð´Ñĥ": 1780,
      "ĠÑĥÑģÑĤÑĢÐ¾Ð¹ÑģÑĤÐ²Ð¾Ð¼": 1781,
      "ĠÐ¸Ð·ÑĢÐµÐºÐ°ÑİÑĤ": 1782,
      "ĠÐ¸Ð·Ð´Ð°Ð²Ð°ÑĤÑĮ": 1783,
      "ĠÐ¿ÑĢÐµÐ´Ð¿Ð¾ÑĩÐ¸ÑĤÐ°ÑİÑĤ": 1784,
      "ĠÐ¿ÑĢÐµÐ´Ð¼ÐµÑĤÐ¾Ð²": 1785,
      "ÑĢÐ°Ð·Ð±Ð¸ÑĢÐ°ÑĤÑĮ": 1786,
      "ĠÐ²ÑĭÐ³Ð¾Ð´Ñĥ": 1787,
      "ĠÐ²ÑĭÐ²Ð¾Ð´Ð°Ð¼Ð¸": 1788,
      "ĠÐ²ÑĭÐ¿Ð¾Ð»Ð½Ð¸Ð»Ð¸": 1789,
      "ĠÐ²ÑĭÐ½Ð¾ÑģÑıÑĤ": 1790,
      "ĠÐ²ÑĭÑģÐºÐ°Ð·Ð°Ð»ÑģÑı": 1791,
      "ĠÐ²ÑĭÑģÐ»ÑĥÑĪÐ¸Ð²Ð°Ñı": 1792,
      "Ð¿ÑĢÐ¾ÑĤÐ¸Ð²Ð¾Ð¿Ð¾Ð»Ð¾Ð¶Ð½Ð¾ÑģÑĤÑıÐ¼Ð¸": 1793,
      "Ð¿ÑĢÐ¾Ð¸Ð·Ð½ÐµÑģÑĤÐ¸": 1794,
      "Ð¿ÑĢÐµÐ´Ð¸ÑģÐ»Ð¾Ð²Ð¸Ñı": 1795,
      "Ð¿ÑĢÐ°Ð²Ð¸Ð»ÑĮÐ½Ð¾Ð¼Ñĥ": 1796,
      "ĠÑĢÐ°ÑģÐ¿Ð¾Ð»Ð¾Ð¶Ð¸ÑĤÑĮ": 1797,
      "ĠÐ²ÑģÐµÑĨÐµÐ»Ð¾": 1798,
      "ÐĲÑĢÐµÐ¾Ð¿Ð°Ð³Ðµ": 1799,
      "ÐĲÐĴÐĲ": 1800,
      "ÐĲÑĢÐ¸ÑģÑĤÐ¾ÑĤÐµÐ»ÑĮ": 1801,
      "ĠÐŁÐ¾Ð»ÑĮÐ·Ð°": 1802,
      "ĠÐŁÐ»Ð°ÑĤÐ¾Ð½Ð¾Ð²Ð¾Ð¹": 1803,
      "ĠÐŁÑĢÐ¸ÑĩÐ¸Ð½Ð°": 1804,
      "ĠÐŁÐµÑĢÐµÐ²Ð¾Ð´": 1805,
      "ĠÑģÐ¾ÑģÑĤÐ°Ð²Ð»ÐµÐ½Ð½ÑĭÐµ": 1806,
      "ĠÐ·Ð½Ð°ÐºÐ¾Ð¼ÑģÑĤÐ²Ð¾": 1807,
      "ĠÑĢÐ¸ÑĤÐ¾ÑĢÐ¸ÑĩÐµÑģÐºÐ¾Ðµ": 1808,
      "ĠÐ¿Ð¾Ð»Ð°Ð³Ð°ÑİÑĤ": 1809,
      "ĠÐ¿Ð¾Ð»ÑĮÐ·ÑĥÑİÑĤÑģÑı": 1810,
      "ĠÐ¿Ð¾Ð»ÑĮÐ·Ð¾Ð²Ð°ÑĤÑĮÑģ": 1811,
      "ĠÐ´Ð¾ÑģÑĤÐ¾ÑıÐ½Ð¸ÐµÐ¼": 1812,
      "ĠÐ¿ÑĢÐ°Ð²Ð´Ð¾Ð¿Ð¾Ð´Ð¾Ð±Ð½Ð¾Ð³Ð¾": 1813,
      "ĠÑĥÐ±ÐµÐ¶Ð´Ð°ÐµÐ¼ÑģÑı": 1814,
      "Ð³Ð½ÑĥÑĤÑĮ": 1815,
      "Ð³Ð¾ÑģÑĥÐ´Ð°ÑĢÑģÑĤÐ²ÐµÐ½Ð½ÑĭÐ¼": 1816,
      "ĠÑıÐ²Ð»ÑıÐµÑĤÑģÑı": 1817,
      "ĠÐ¾Ð¿ÑĢÐ¾Ð²ÐµÑĢÐ³Ð½ÑĥÑĤÑĮ": 1818,
      "ĠÐ¾Ð¿ÑĢÐ°Ð²Ð´ÑĭÐ²Ð°ÑĤÑĮÑģÑı": 1819,
      "ÑģÐ¾Ð¾Ð±ÑĢÐ°Ð¶ÐµÐ½Ð¸Ñı": 1820,
      "ĠÑģÐ¾ÑĦÐ¸ÑģÑĤÐ¸ÐºÐ¸": 1821,
      "ĠÑģÐ¾Ð¾ÑĤÐ²ÐµÑĤÑģÑĤÐ²ÑĥÑİÑīÐµÐµ": 1822,
      "ĠÐ¿Ð¾ÑģÑĤÑĥÐ¿Ð°ÑİÑĤ": 1823,
      "ĠÐ¿Ð¾ÑģÑĤÐ°Ð½Ð¾Ð²ÐºÑĥ": 1824,
      "ĠÑĢÐ°Ð·Ð²Ð¸ÑĤÑĭÐ¼Ð¸": 1825,
      "ĠÑĢÐ°Ð·Ð»Ð¸ÑĩÐ°ÑĤÑĮ": 1826,
      "ĠÑĢÐ°Ð·Ð±Ð¸ÑĢÐ°ÑİÑĤ": 1827,
      "ĠÑĢÐ°Ð·Ð¼ÑĭÑĪÐ»ÐµÐ½Ð¸Ð¹": 1828,
      "ÑĢÐ°ÑģÑģÑĥÐ¶Ð´Ð°ÑİÑĤ": 1829,
      "ÑĢÐ°ÑģÐ¿ÑĢÐ¾ÑģÑĤÑĢÐ°Ð½ÑıÑıÑģÑĮ": 1830,
      "ĠÐ¾ÑģÐ½Ð¾Ð²Ð°Ð½Ð½ÑĥÑİ": 1831,
      "ĠÐ·Ð°Ð±Ð¾ÑĤÑıÑĤÑģÑı": 1832,
      "ĠÑĥÐ¼Ð¾Ð·Ð°ÐºÐ»ÑİÑĩÐµÐ½Ð¸ÑıÐ¼": 1833,
      "ĠÐ½Ð°ÑħÐ¾Ð´ÑĩÐ¸Ð²ÑĭÐ¼": 1834,
      "ÐĵÐĽÐĲÐĴÐĲ": 1835,
      "ĠÐĿÐµÑĥÐ´Ð¾Ð²Ð»ÐµÑĤÐ²Ð¾ÑĢÐ¸ÑĤÐµÐ»ÑĮÐ½Ð¾ÑģÑĤÑĮ": 1836,
      "Ð¸Ð·ÑĢÐµÐºÐ°ÑĤÑĮ": 1837,
      "Ð´Ð¾ÑģÑĤÐ¸Ð³Ð°ÑİÑĤ": 1838,
      "ĠÐ¿Ð¾ÑĢÑıÐ´Ð¾Ðº": 1839,
      "Ð¿ÑĢÐ¸ÑĩÐ°ÑģÑĤÐ½Ñĭ": 1840,
      "Ð¿ÑĢÐ¸Ð·Ð½Ð°ÐºÐ°Ð¼Ð¸": 1841,
      "TrpooufjKai": 1842,
      "ÐļÐĿÐĺÐĵÐĲ": 1843,
      "ÑģÐ²ÑıÐ·Ð¸": 1844,
      "Ð½Ð°ÑħÐ¾Ð´ÑĩÐ¸Ð²": 1845,
      "Ð´Ð¾Ð»Ð³Ð¾Ð²ÑĢÐµÐ¼ÐµÐ½Ð½ÑĭÑħ": 1846,
      "ĠÐ½ÐµÐ·Ð½Ð°ÑĩÐ¸ÑĤÐµÐ»ÑĮÐ½ÑĥÑİ": 1847,
      "ĠÐ²Ð¾Ð·Ð±ÑĥÐ¶Ð´Ð°Ñı": 1848,
      "ĠÐ½ÐµÑģÐ¾Ð¾ÑĤÐ²ÐµÑĤÑģÑĤÐ²ÑĥÑİÑīÐ¸Ð¼Ð¸": 1849,
      "ĠÐ¿ÑĢÐµÐ¸Ð¼ÑĥÑīÐµÑģÑĤÐ²ÐµÐ½Ð½Ð¾": 1850,
      "ĠÐ¾ÑĤÐ¿ÑĢÐ°Ð²Ð»ÑıÑİÑīÐ¸Ð¼": 1851
    },
    "merges": [
      [
        "Ð",
        "¾"
      ],
      [
        "Ġ",
        "Ð"
      ],
      [
        "Ð",
        "µ"
      ],
      [
        "Ñ",
        "Ĥ"
      ],
      [
        "Ñ",
        "ģ"
      ],
      [
        "Ð",
        "°"
      ],
      [
        "Ð¾",
        "Ð"
      ],
      [
        "Ð",
        "¸"
      ],
      [
        "Ð",
        "½"
      ],
      [
        "Ñ",
        "Ģ"
      ],
      [
        "Ðµ",
        "Ð"
      ],
      [
        "Ð°",
        "Ð"
      ],
      [
        "Ñ",
        "ĥ"
      ],
      [
        "Ñģ",
        "ÑĤ"
      ],
      [
        "Ñ",
        "ı"
      ],
      [
        "Ñ",
        "Į"
      ],
      [
        "Ñ",
        "ĭ"
      ],
      [
        "Ð",
        "²"
      ],
      [
        "Ð",
        "»"
      ],
      [
        "Ñ",
        "ĩ"
      ],
      [
        "Ġ",
        "Ñģ"
      ],
      [
        "Ð",
        "´"
      ],
      [
        "ÑĤ",
        "Ð¾"
      ],
      [
        "ĠÐ",
        "¸"
      ],
      [
        "ĠÐ",
        "¿"
      ],
      [
        "Ð°Ð",
        "º"
      ],
      [
        "Ð",
        "¼"
      ],
      [
        "Ð½",
        "Ð¾"
      ],
      [
        "ĠÐ",
        "½"
      ],
      [
        "ĠÐ",
        "²"
      ],
      [
        "ĠÐ",
        "º"
      ],
      [
        "Ġ",
        "ÑĤ"
      ],
      [
        "Ð",
        "º"
      ],
      [
        "Ñ",
        "ħ"
      ],
      [
        "ĠÐ",
        "´"
      ],
      [
        "Ġ",
        "Ġ"
      ],
      [
        "Ñģ",
        "Ñı"
      ],
      [
        "Ð½",
        "Ð¸"
      ],
      [
        "Ñ",
        "İ"
      ],
      [
        "ÐµÐ",
        "»"
      ],
      [
        "Ð¾Ð",
        "±"
      ],
      [
        "³",
        "Ð¾"
      ],
      [
        "Ð¾Ð",
        "²"
      ],
      [
        "Ġ",
        "Ñĩ"
      ],
      [
        "Ġ",
        "Ð¾"
      ],
      [
        "ÑĢ",
        "Ð¸"
      ],
      [
        "Ð¾Ð",
        "»"
      ],
      [
        "ÑģÑĤ",
        "Ð²"
      ],
      [
        "Ðµ",
        "ÑĤ"
      ],
      [
        "Ð¾Ð",
        "´"
      ],
      [
        "ÑĤ",
        "ÑĮ"
      ],
      [
        "Ð¾Ð",
        "¼"
      ],
      [
        "Ð½",
        "Ñĭ"
      ],
      [
        "ÐµÐ",
        "¼"
      ],
      [
        "Ð",
        "¿"
      ],
      [
        "Ñĥ",
        "Ð´"
      ],
      [
        "ĠÐ",
        "¼"
      ],
      [
        "Ñ",
        "ī"
      ],
      [
        "Ð",
        "·"
      ],
      [
        "Ð»",
        "Ð¸"
      ],
      [
        "Ġ",
        "ÑĢ"
      ],
      [
        "Ñ",
        "į"
      ],
      [
        "ĠÐ½",
        "Ðµ"
      ],
      [
        "ĠÑĩ",
        "ÑĤÐ¾"
      ],
      [
        "Ð°Ð",
        "²"
      ],
      [
        "Ð°Ð",
        "·"
      ],
      [
        "Ð",
        "¶"
      ],
      [
        "Ñ",
        "Ī"
      ],
      [
        "Ð¾Ð",
        "³Ð¾"
      ],
      [
        "ÐµÐ",
        "´"
      ],
      [
        "Ġ",
        "Ñį"
      ],
      [
        "Ðµ",
        "Ð½Ð¸"
      ],
      [
        "ĠÑĤ",
        "Ð°Ðº"
      ],
      [
        "ÑĤ",
        "Ð¸"
      ],
      [
        "ĠÐº",
        "Ð°Ðº"
      ],
      [
        "Ð¾",
        "ÑģÑĤ"
      ],
      [
        "ÑĤÐ¾",
        "ÑĢ"
      ],
      [
        "Ñİ",
        "ÑĤ"
      ],
      [
        "ĠÐ",
        "·"
      ],
      [
        "Ð¾Ð",
        "¹"
      ],
      [
        "ÑģÑĤ",
        "Ð¸"
      ],
      [
        "ĠÐ¿",
        "ÑĢ"
      ],
      [
        "ĠÐ¾",
        "ÑĤ"
      ],
      [
        "Ġ",
        "Ð¾Ð±"
      ],
      [
        "ÐµÐ»",
        "ÑĮ"
      ],
      [
        "ĠÐ",
        "µ"
      ],
      [
        "Ð¾Ð",
        "½"
      ],
      [
        "ÐµÐ",
        "¹"
      ],
      [
        "Ð°",
        "ÑĤÑĮ"
      ],
      [
        "Ðµ",
        "Ð½"
      ],
      [
        "Ñģ",
        "Ðº"
      ],
      [
        "Ð¾Ð",
        "¿"
      ],
      [
        "ĠÐ´",
        "ÐµÐ»"
      ],
      [
        "Ð",
        "±"
      ],
      [
        "Ð°",
        "Ñģ"
      ],
      [
        "Ð¾Ð",
        "¶"
      ],
      [
        "Ðµ",
        "ÑĢ"
      ],
      [
        "ÑĤ",
        "ÐµÐ»ÑĮ"
      ],
      [
        "Ð°",
        "Ð½Ð¸"
      ],
      [
        "Ð°Ð",
        "¼"
      ],
      [
        "Ð¾",
        "Ñģ"
      ],
      [
        "ĠÑģ",
        "ÑĥÐ´"
      ],
      [
        "Ċ",
        "ĠĠ"
      ],
      [
        "Ð¾",
        "ÑĢ"
      ],
      [
        "Ð¾Ð",
        "º"
      ],
      [
        "ÐµÐ",
        "³Ð¾"
      ],
      [
        "ĠÐ¿",
        "ÑĢÐ¸"
      ],
      [
        "Ð¾Ð»",
        "ÑĮ"
      ],
      [
        "ĊĠĠ",
        "ĠĠ"
      ],
      [
        "³",
        "Ð¸"
      ],
      [
        "³",
        "Ð¾Ð²"
      ],
      [
        "Ġ",
        "ÑĤÐ¾"
      ],
      [
        "Ð¾",
        "ÑĤÐ¾ÑĢ"
      ],
      [
        "ĠÐ",
        "±"
      ],
      [
        "Ð°",
        "ÑİÑĤ"
      ],
      [
        "ÑģÑĤ",
        "ÑĮ"
      ],
      [
        "ÐµÑĤ",
        "ÑģÑı"
      ],
      [
        "¶",
        "Ð´"
      ],
      [
        "Ð°",
        "Ñħ"
      ],
      [
        "Ð»",
        "Ñı"
      ],
      [
        "ĠÑĢ",
        "Ðµ"
      ],
      [
        "Ġ",
        "-"
      ],
      [
        "Ð¾",
        "ÑĤ"
      ],
      [
        "Ð¸",
        "Ð»"
      ],
      [
        "Ð¸",
        "Ð¼"
      ],
      [
        "ĠÐ²",
        "Ñģ"
      ],
      [
        "Ð¾Ð¼",
        "Ñĥ"
      ],
      [
        "Ð¾Ðº",
        "Ð°Ð·"
      ],
      [
        "ĠÐ",
        "»"
      ],
      [
        "ĠÐ¾ÑĤ",
        "Ð½Ð¾"
      ],
      [
        "Ð¾ÑĤÐ¾ÑĢ",
        "Ñĭ"
      ],
      [
        "¶",
        "Ðµ"
      ],
      [
        "Ð",
        "¹"
      ],
      [
        "Ð¾Ð",
        "¸"
      ],
      [
        "Ð½",
        "Ð°"
      ],
      [
        "ÐµÐ",
        "²"
      ],
      [
        "ÐµÐ",
        "º"
      ],
      [
        "Ñĩ",
        "Ð¸"
      ],
      [
        "ĠÑģ",
        "Ð²"
      ],
      [
        "ĠÐ¸",
        "Ð»Ð¸"
      ],
      [
        "Ð¾Ð¿",
        "ÑĢ"
      ],
      [
        "ĠÐ",
        "°"
      ],
      [
        "ĠÐ",
        "³Ð¾Ð²"
      ],
      [
        "ĠÐ",
        "¶Ðµ"
      ],
      [
        "Ð°",
        "ÐµÑĤÑģÑı"
      ],
      [
        "Ð¾Ð",
        "·"
      ],
      [
        "ÑĢ",
        "Ð°"
      ],
      [
        "ÐµÐ",
        "¶Ð´"
      ],
      [
        "ĠÑģ",
        "Ð¿"
      ],
      [
        "ĠÐ´",
        "Ð¾ÐºÐ°Ð·"
      ],
      [
        "Ð¾Ð¶",
        "Ð½Ð¾"
      ],
      [
        "ĠÑģÑĥÐ´",
        "ÑĮ"
      ],
      [
        "Ġ",
        "Ð¾Ð½"
      ],
      [
        "ÑĤ",
        "ÑģÑı"
      ],
      [
        "Ð¾Ð",
        "³Ð¸"
      ],
      [
        "Ð¸",
        "Ñħ"
      ],
      [
        "ĠÑģ",
        "Ð»"
      ],
      [
        "ÐµÐ½Ð¸",
        "Ñı"
      ],
      [
        "Ð¾",
        "ÑĢÐ¸"
      ],
      [
        "ĠÐ",
        "Ĵ"
      ],
      [
        "Ðµ",
        "Ðµ"
      ],
      [
        "Ñģ",
        "Ð»"
      ],
      [
        "Ñģ",
        "ÑĥÐ´"
      ],
      [
        "Ð°",
        "ÑĤÐµÐ»ÑĮ"
      ],
      [
        "Ð¸",
        "Ðµ"
      ],
      [
        "ĠÑģ",
        "Ð°Ð¼"
      ],
      [
        "ĠÐ¸",
        "Ð¼"
      ],
      [
        "ĠÐ¸",
        "ÑģÐº"
      ],
      [
        "Ð°Ðº",
        "Ð¾Ð½"
      ],
      [
        "Ð¼",
        "Ð¸"
      ],
      [
        "ĠÐ½",
        "Ð°"
      ],
      [
        "Ð°Ð²",
        "Ð»Ñı"
      ],
      [
        "ÐµÐ½Ð¸",
        "Ðµ"
      ],
      [
        "Ð¾Ñģ",
        "Ð¾Ð±"
      ],
      [
        "ĠÐ±",
        "Ñĭ"
      ],
      [
        "Ġ",
        "Ñĥ"
      ],
      [
        "Ñģ",
        "ÑģÑĤÐ²"
      ],
      [
        "Ð½",
        "Ð¾Ð¹"
      ],
      [
        "ÑĢ",
        "Ñĥ"
      ],
      [
        "Ñĥ",
        "Ñī"
      ],
      [
        "Ñĥ",
        "Ð¶"
      ],
      [
        "Ñĥ",
        "ÑģÑģÑĤÐ²"
      ],
      [
        "ÑĤÐ¾",
        "ÑĢÐ¸"
      ],
      [
        "ĠÐ¸",
        "Ð·"
      ],
      [
        "ĠÐ¸",
        "ÑģÑĤÐ¸"
      ],
      [
        "ĠÐº",
        "Ð°Ñģ"
      ],
      [
        "ĠÐº",
        "Ð¾ÑĤÐ¾ÑĢÑĭ"
      ],
      [
        "ĠÑĤ",
        "Ð¾Ð³Ð¾"
      ],
      [
        "Ðº",
        "Ð¸"
      ],
      [
        "Ð½Ñĭ",
        "Ñħ"
      ],
      [
        "ĠÐ¼",
        "Ñĭ"
      ],
      [
        "ĠÑį",
        "ÑĤ"
      ],
      [
        "ĠÐ¿ÑĢ",
        "ÐµÐ´"
      ],
      [
        "ĠÐ¸ÑģÐº",
        "ÑĥÑģÑģÑĤÐ²"
      ],
      [
        "Ñģ",
        "Ð¸"
      ],
      [
        "Ð°",
        "ÑĢ"
      ],
      [
        "Ð¸",
        "Ð´"
      ],
      [
        "Ð½",
        "Ðµ"
      ],
      [
        "Ð½",
        "ÑĤÐ¸"
      ],
      [
        "ÑĢ",
        "Ð°Ð·"
      ],
      [
        "Ð°Ð",
        "»"
      ],
      [
        "Ñĥ",
        "Ñĩ"
      ],
      [
        "Ð»",
        "Ð¾Ð³Ð¸"
      ],
      [
        "Ðº",
        "Ð¾"
      ],
      [
        "Ñİ",
        "Ð´"
      ],
      [
        "Ð¾Ð»",
        "Ð¶"
      ],
      [
        "Ð½Ñĭ",
        "Ðµ"
      ],
      [
        "Ð½Ñĭ",
        "Ð¼"
      ],
      [
        "ÑĪ",
        "Ðµ"
      ],
      [
        "ĠÑį",
        "ÑĤÐ¾"
      ],
      [
        "ĠÐµ",
        "ÑģÑĤÑĮ"
      ],
      [
        "ÑĤÐµÐ»ÑĮ",
        "Ð½Ð¾"
      ],
      [
        "Ð°Ð½Ð¸",
        "Ñı"
      ],
      [
        "ĠÑĢÐµ",
        "Ñĩ"
      ],
      [
        "ĠÐ³Ð¾Ð²",
        "Ð¾ÑĢÐ¸"
      ],
      [
        "ĠÑģÐ¿",
        "Ð¾ÑģÐ¾Ð±"
      ],
      [
        "Ð°ÑĤÐµÐ»ÑĮ",
        "ÑģÑĤÐ²"
      ],
      [
        "ÑĢÑĥ",
        "Ð"
      ],
      [
        "<",
        "/"
      ],
      [
        "Ġ",
        "Ñħ"
      ],
      [
        "Ġ",
        "Ð¾Ð´"
      ],
      [
        "Ð°",
        "ÑĤ"
      ],
      [
        "Ð¸",
        "ÑģÑĤ"
      ],
      [
        "Ñĥ",
        "Ñİ"
      ],
      [
        "Ð²",
        "Ð°ÑĤÑĮ"
      ],
      [
        "ĠÐ¿",
        "Ð¾ÑĤ"
      ],
      [
        "Ð¼",
        "ÐµÐ¼"
      ],
      [
        "ĠÐ½",
        "Ð¾"
      ],
      [
        "ĠÐ²",
        "Ñĭ"
      ],
      [
        "ĠÑĤ",
        "Ðµ"
      ],
      [
        "ĠÐ´",
        "ÑĢÑĥÐ"
      ],
      [
        "ÑģÑĤÐ²",
        "ÐµÐ½"
      ],
      [
        "Ð¿",
        "ÑĢ"
      ],
      [
        "Ð·",
        "Ð¼"
      ],
      [
        "ĠÑĢ",
        "Ð¾Ð´"
      ],
      [
        "ĠÑĢ",
        "Ð°Ñģ"
      ],
      [
        "ĠÐ·",
        "Ð°ÐºÐ¾Ð½"
      ],
      [
        "ĠÐ¾Ð±",
        "Ð»"
      ],
      [
        "ĠÐ´ÐµÐ»",
        "Ð¾"
      ],
      [
        "ĠÐ´ÐµÐ»",
        "Ñĥ"
      ],
      [
        "Ð¸Ð»",
        "Ð»Ð¾Ð³Ð¸"
      ],
      [
        "ĠÐ²Ñģ",
        "Ðµ"
      ],
      [
        "ĠÐ¾ÑĤÐ½Ð¾",
        "ÑģÑı"
      ],
      [
        "ĠÐ¾ÑĤÐ½Ð¾",
        "ÑģÐ¸"
      ],
      [
        "ĠÑģÐ²",
        "Ð¾"
      ],
      [
        "Ð¾Ð¿ÑĢ",
        "Ð¾Ñģ"
      ],
      [
        "ĠÐ´Ð¾ÐºÐ°Ð·",
        "Ð°ÑĤÐµÐ»ÑĮÑģÑĤÐ²"
      ],
      [
        "ĠÑģÐ»",
        "ÑĥÑĩ"
      ],
      [
        "ĠÐ¸Ð¼",
        "Ðµ"
      ],
      [
        "ĠÐºÐ¾ÑĤÐ¾ÑĢÑĭ",
        "Ðµ"
      ],
      [
        "Ð½ÑĤÐ¸",
        "Ð¼ÐµÐ¼"
      ],
      [
        "ĠÐ¿Ð¾ÑĤ",
        "Ð¾Ð¼Ñĥ"
      ],
      [
        "Ð¸Ð»Ð»Ð¾Ð³Ð¸",
        "Ð·Ð¼"
      ],
      [
        "Ð",
        "Ĳ"
      ],
      [
        "Ð¾",
        "ÑĤÐ¸"
      ],
      [
        "ĠÐ",
        "Ł"
      ],
      [
        "Ðµ",
        "Ñģ"
      ],
      [
        "Ðµ",
        "Ñī"
      ],
      [
        "Ñģ",
        "Ð»Ð¸"
      ],
      [
        "Ð°",
        "Ñı"
      ],
      [
        "ÐµÐ",
        "±"
      ],
      [
        "ÐµÐ",
        "·"
      ],
      [
        "Ð°Ð",
        "´"
      ],
      [
        "Ñı",
        "ÑĤ"
      ],
      [
        "Ð²",
        "Ñĭ"
      ],
      [
        "Ð²",
        "Ð¾Ð¿"
      ],
      [
        "Ñĩ",
        "ÐµÐ²"
      ],
      [
        "ĠÑģ",
        "Ð¾ÑģÑĤ"
      ],
      [
        "ĠÑģ",
        "Ð¸ÑģÑĤ"
      ],
      [
        "ĠÑģ",
        "Ð¸Ð»Ð»Ð¾Ð³Ð¸Ð·Ð¼"
      ],
      [
        "ĠÐ¿",
        "Ð¾"
      ],
      [
        "Ð½Ð¾",
        "Ðµ"
      ],
      [
        "ĠÐ½",
        "Ð¸"
      ],
      [
        "ĠÑĤ",
        "ÐµÐ¼"
      ],
      [
        "Ðº",
        "Ð°Ðº"
      ],
      [
        "ĠÐ´",
        "Ð¾Ð»Ð¶"
      ],
      [
        "ĠÑĩ",
        "Ð°"
      ],
      [
        "ĠÐ¾",
        "ÑĢÐ°"
      ],
      [
        "ĠÐ¾",
        "ÑĩÐµÐ²"
      ],
      [
        "ÑĢÐ¸",
        "ÑĤÐ¾ÑĢÐ¸"
      ],
      [
        "ĠÑį",
        "ÑĤÐ¸"
      ],
      [
        "ĠÑį",
        "Ð½ÑĤÐ¸Ð¼ÐµÐ¼"
      ],
      [
        "ĠÐ·",
        "Ð½"
      ],
      [
        "ĠÐµ",
        "ÑģÐ»Ð¸"
      ],
      [
        "Ð°Ð½Ð¸",
        "Ðµ"
      ],
      [
        "Ð¾Ð»ÑĮ",
        "Ð·"
      ],
      [
        "Ð¾Ð»ÑĮ",
        "ÐºÐ¾"
      ],
      [
        "ĠÑĢÐµ",
        "ÑĪ"
      ],
      [
        "ĠÐ»",
        "ÑİÐ´"
      ],
      [
        "Ð¾Ð·",
        "Ð¼"
      ],
      [
        "ÐµÐ¶Ð´",
        "Ñĥ"
      ],
      [
        "ÑģÐ»",
        "ÐµÐ´"
      ],
      [
        "ÑĥÐ¶",
        "Ð´"
      ],
      [
        "Ð¸Ð´",
        "Ð½Ð¾"
      ],
      [
        "ĠÑĢÐ°Ñģ",
        "Ñģ"
      ],
      [
        "Ð¾ÑĤÐ¸",
        "Ð²Ð¾Ð¿"
      ],
      [
        "ĠÑģÐ¸ÑģÑĤ",
        "ÐµÐ¼"
      ],
      [
        "ĠÐ¾ÑĢÐ°",
        "ÑĤÐ¾ÑĢ"
      ],
      [
        "ĠÐ¾ÑĩÐµÐ²",
        "Ð¸Ð´Ð½Ð¾"
      ],
      [
        "Ð¾ÑĤÐ¸Ð²Ð¾Ð¿",
        "Ð¾Ð»"
      ],
      [
        "Ð",
        "³Ð¾Ð²"
      ],
      [
        "Ñ",
        "Ĩ"
      ],
      [
        "Ġ",
        "["
      ],
      [
        "Ġ",
        "ÑĢÐ¸ÑĤÐ¾ÑĢÐ¸"
      ],
      [
        "Ðµ",
        "ÑģÑĤ"
      ],
      [
        "Ð¾Ð",
        "³"
      ],
      [
        "Ð¸",
        "Ð½"
      ],
      [
        "Ð½",
        "Ð¾Ð³Ð¾"
      ],
      [
        "ÑĢ",
        "Ð¾Ð´"
      ],
      [
        "Ñĭ",
        "Ð²Ð°ÑĤÑĮ"
      ],
      [
        "Ñĩ",
        "Ð½Ð¾"
      ],
      [
        "ĠÐ¿",
        "Ð¾Ð»"
      ],
      [
        "ĠÐ¿",
        "Ð¾Ð´"
      ],
      [
        "ĠÐ¿",
        "Ð¾Ð»ÑĮÐ·"
      ],
      [
        "ĠÐ½",
        "ÐµÐº"
      ],
      [
        "ĠÐ²",
        "Ð¾Ð¿ÑĢÐ¾Ñģ"
      ],
      [
        "Ðº",
        "Ð°"
      ],
      [
        "ĠÐ´",
        "Ð¾ÑģÑĤ"
      ],
      [
        "Ð½Ð¸",
        "Ð±"
      ],
      [
        "ĠÑĩ",
        "ÐµÐ¼"
      ],
      [
        "ÑģÑĤÐ²",
        "Ð¸"
      ],
      [
        "ÑģÑĤÐ²",
        "Ð¸Ðµ"
      ],
      [
        "ÐµÑĤ",
        "ÑĮ"
      ],
      [
        "ÑĥÐ´",
        "ÑĮ"
      ],
      [
        "ĠÐ¼",
        "ÐµÐ½"
      ],
      [
        "ĠÐ¼",
        "ÐµÐ¶Ð´Ñĥ"
      ],
      [
        "Ð»Ð¸",
        "Ð²"
      ],
      [
        "Ð°Ð²",
        "ÐµÐ´"
      ],
      [
        "ĠÐ¿ÑĢ",
        "Ð°Ð²"
      ],
      [
        "ĠÐ¿ÑĢ",
        "Ð¾ÑĤÐ¸Ð²Ð¾Ð¿Ð¾Ð»"
      ],
      [
        "ĠÐ¾Ð±",
        "ÑĢÐ°Ð·"
      ],
      [
        "Ð±",
        "ÐµÐ¶Ð´"
      ],
      [
        "³Ð¸",
        "Ðµ"
      ],
      [
        "Ð°ÑİÑĤ",
        "ÑģÑı"
      ],
      [
        "Ð¾Ð¸",
        "Ð·"
      ],
      [
        "ĠÑģÐ²",
        "Ð¾Ð¸"
      ],
      [
        "ĠÑģÑĥÐ´ÑĮ",
        "Ð¸"
      ],
      [
        "ĠÐ¾Ð½",
        "Ð¸"
      ],
      [
        "Ð¸Ñħ",
        "ÑģÑı"
      ],
      [
        "ĠÑĥ",
        "Ð±ÐµÐ¶Ð´"
      ],
      [
        "ĠÐºÐ°Ñģ",
        "Ð°ÐµÑĤÑģÑı"
      ],
      [
        "ĠÐ¸ÑģÐºÑĥÑģÑģÑĤÐ²",
        "Ð°"
      ],
      [
        "ĠÐ¾ÑĤÐ½Ð¾ÑģÑı",
        "Ñī"
      ],
      [
        "ĠÐ¾ÑĤÐ½Ð¾ÑģÐ¸",
        "ÑĤÐµÐ»ÑĮÐ½Ð¾"
      ],
      [
        "Ð½Ð¸Ð±",
        "ÑĥÐ´ÑĮ"
      ],
      [
        "Ð°Ð²ÐµÐ´",
        "Ð»Ð¸Ð²"
      ],
      [
        ">",
        "</"
      ],
      [
        "¢",
        "Ð°Ðº"
      ],
      [
        "Ð",
        "³"
      ],
      [
        "Ð",
        "³Ð¾"
      ],
      [
        "Ġ",
        "Ñı"
      ],
      [
        "Ġ",
        "Ð¾Ð¿ÑĢ"
      ],
      [
        "ļ",
        "ÑĢ"
      ],
      [
        "ĠÐ",
        "³"
      ],
      [
        "ĠÐ",
        "ł"
      ],
      [
        "ĠÐ",
        "¢Ð°Ðº"
      ],
      [
        "ĠÐ",
        "ļÑĢ"
      ],
      [
        "ÑĤ",
        "Ð°Ðº"
      ],
      [
        "Ñģ",
        "Ð¾"
      ],
      [
        "Ð°",
        "ÑĤÐ¾"
      ],
      [
        "Ð¸",
        "ÑĤÑģÑı"
      ],
      [
        "Ð¸",
        "Ð°Ð»"
      ],
      [
        "Ð½",
        "Ð¾Ð²"
      ],
      [
        "ÑĢ",
        "Ðµ"
      ],
      [
        "ÑĢ",
        "Ð°Ð²ÐµÐ´Ð»Ð¸Ð²"
      ],
      [
        "Ð°Ð",
        "¶"
      ],
      [
        "Ð°Ð",
        "¶Ð´"
      ],
      [
        "Ñĥ",
        "ÑİÑĤ"
      ],
      [
        "ÑģÑĤ",
        "Ð°Ð²Ð»Ñı"
      ],
      [
        "Ñı",
        "Ð¶"
      ],
      [
        "ÑĮ",
        "ÑĪÐµ"
      ],
      [
        "Ñĩ",
        "Ðµ"
      ],
      [
        "Ñĩ",
        "ÐµÐ³Ð¾"
      ],
      [
        "ĠÑģ",
        "Ð¾"
      ],
      [
        "ĠÑģ",
        "Ð¾Ð±"
      ],
      [
        "Ð´",
        "ÐµÐ»ÑĮ"
      ],
      [
        "Ð´",
        "ÐµÑģ"
      ],
      [
        "ĠÐ¿",
        "Ð¾ÑģÑĤ"
      ],
      [
        "Ð°Ðº",
        "ÑĤ"
      ],
      [
        "ĠÐ½",
        "Ð°Ñħ"
      ],
      [
        "ĠÐº",
        "Ð°Ð¶Ð´"
      ],
      [
        "ĠÑĤ",
        "Ð¾Ð¼"
      ],
      [
        "ĠÑĤ",
        "Ð¾Ð»ÑĮÐºÐ¾"
      ],
      [
        "ĠÑĤ",
        "ÑıÐ¶"
      ],
      [
        "ĠÐ´",
        "ÐµÐ¹"
      ],
      [
        "ĠÐ´",
        "Ð»Ñı"
      ],
      [
        "ĠÐ´",
        "Ð¸Ð°Ð»"
      ],
      [
        "ÐµÐ»",
        "Ñı"
      ],
      [
        "Ð¾Ð±",
        "Ñī"
      ],
      [
        "ĠÑĩ",
        "ÐµÐ³Ð¾"
      ],
      [
        "Ð¾Ð»",
        "ÐµÐµ"
      ],
      [
        "Ð¾Ð¼",
        "Ðµ"
      ],
      [
        "Ð½Ñĭ",
        "Ð¹"
      ],
      [
        "ĠÐ¼",
        "Ð½"
      ],
      [
        "ĠÐ¼",
        "Ð¾Ð¶"
      ],
      [
        "ĠÑĢ",
        "Ð°Ð·"
      ],
      [
        "Ð¶",
        "Ðµ"
      ],
      [
        "ĠÑĤÐ°Ðº",
        "Ð¶Ðµ"
      ],
      [
        "ĠÐ¾ÑĤ",
        "Ð´ÐµÐ»ÑĮ"
      ],
      [
        "ĠÐµ",
        "Ðµ"
      ],
      [
        "ÑģÐº",
        "Ð¾Ð³Ð¾"
      ],
      [
        "Ð±",
        "Ð¾"
      ],
      [
        "ĠÐ¿ÑĢÐ¸",
        "ÑĢÐ¾Ð´"
      ],
      [
        "ĠÑĤÐ¾",
        "ÑĤ"
      ],
      [
        "Ð¸Ð»",
        "ÑĮ"
      ],
      [
        "ĠÐ²Ñģ",
        "ÐµÐ³Ð¾"
      ],
      [
        "ÐµÐº",
        "ÑĤÐ¸"
      ],
      [
        "ĠÐ³Ð¾Ð²",
        "Ð¾ÑĢ"
      ],
      [
        "ĠÑģÐ¿",
        "ÑĢÐ°Ð²ÐµÐ´Ð»Ð¸Ð²"
      ],
      [
        "ĠÐ´Ð¾ÐºÐ°Ð·",
        "ÑĭÐ²Ð°ÑĤÑĮ"
      ],
      [
        "ÑģÑĥÐ´",
        "Ð°ÑĢ"
      ],
      [
        "ĠÑįÑĤ",
        "Ð¾Ð¼"
      ],
      [
        "ĠÑįÑĤ",
        "Ð¾Ð³Ð¾"
      ],
      [
        "ĠÑĢÐµÑĩ",
        "ÐµÐ¹"
      ],
      [
        "ĠÐ³Ð¾Ð²Ð¾ÑĢÐ¸",
        "ÑĤÑĮ"
      ],
      [
        "ĠÐ´ÑĢÑĥÐ",
        "³Ð¸Ðµ"
      ],
      [
        "ĠÑĢÐ¾Ð´",
        "Ð°"
      ],
      [
        "ĠÐ¾Ð±Ð»",
        "Ð°"
      ],
      [
        "ĠÐ¸Ð¼Ðµ",
        "ÐµÑĤ"
      ],
      [
        "Ð¾Ð·Ð¼",
        "Ð¾Ð¶Ð½Ð¾"
      ],
      [
        "Ð³Ð¾Ð²",
        "Ð¾ÑĢ"
      ],
      [
        "ĠÐ¿ÑĢÐ¾ÑĤÐ¸Ð²Ð¾Ð¿Ð¾Ð»",
        "Ð¾Ð¶Ð½Ð¾"
      ],
      [
        "ĠÐ¾Ð±ÑĢÐ°Ð·",
        "Ð¾Ð¼"
      ],
      [
        "ĠÐļÑĢ",
        "Ð¾Ð¼Ðµ"
      ],
      [
        "Ð´ÐµÑģ",
        "ÑĮ"
      ],
      [
        "ĠÑĤÑıÐ¶",
        "ÑĥÑī"
      ],
      [
        "ĠÐ´Ð¸Ð°Ð»",
        "ÐµÐºÑĤÐ¸"
      ],
      [
        "u",
        "l"
      ],
      [
        "¿",
        "ÑĢ"
      ],
      [
        "Ñ",
        "Ħ"
      ],
      [
        "Ċ",
        "ĊĠĠĠĠ"
      ],
      [
        "Ġ",
        "("
      ],
      [
        "Ð¾",
        "Ðµ"
      ],
      [
        "Ð¾",
        "ÑĪ"
      ],
      [
        "ĠÐ",
        "ĺ"
      ],
      [
        "ĠÐ",
        "³Ð¾"
      ],
      [
        "Ðµ",
        "ÑģÑĤÐ¸"
      ],
      [
        "ÑĤ",
        "Ð¾Ð±"
      ],
      [
        "Ñģ",
        "Ðµ"
      ],
      [
        "Ñģ",
        "Ð½Ð¾"
      ],
      [
        "Ñģ",
        "ÑģÐ»ÐµÐ´"
      ],
      [
        "Ñģ",
        "Ð½Ð¾Ð²"
      ],
      [
        "Ð°",
        "ÐµÑĤ"
      ],
      [
        "Ð°",
        "ÐµÐ¼"
      ],
      [
        "Ð¸",
        "ÑĤÐ¾ÑĢÐ¸"
      ],
      [
        "Ð½",
        "Ñĥ"
      ],
      [
        "Ð½",
        "ÑĥÑİ"
      ],
      [
        "ÑĢ",
        "Ð°Ñģ"
      ],
      [
        "ÐµÐ",
        "³"
      ],
      [
        "Ð°Ð",
        "¹"
      ],
      [
        "Ñĥ",
        "ÑĤ"
      ],
      [
        "Ñĥ",
        "ÐµÑĤ"
      ],
      [
        "Ñĥ",
        "ÑĪ"
      ],
      [
        "ÑģÑĤ",
        "Ð¾"
      ],
      [
        "ÑģÑĤ",
        "ÑĢ"
      ],
      [
        "ÑģÑĤ",
        "Ñı"
      ],
      [
        "ÑģÑĤ",
        "ÐµÐ¹"
      ],
      [
        "Ñĭ",
        "Ð¹"
      ],
      [
        "Ð²",
        "Ð¸"
      ],
      [
        "Ð²",
        "ÐµÑĤ"
      ],
      [
        "Ð²",
        "Ð¾Ð´"
      ],
      [
        "Ð²",
        "ÐµÑģÑĤ"
      ],
      [
        "Ð»",
        "Ñİ"
      ],
      [
        "Ñĩ",
        "Ð½Ð¾Ð¹"
      ],
      [
        "ĠÑģ",
        "Ðº"
      ],
      [
        "Ð´",
        "Ð°"
      ],
      [
        "ĠÐ¸",
        "ÑģÑģÐ»ÐµÐ´"
      ],
      [
        "ĠÐ¿",
        "ÐµÑĢ"
      ],
      [
        "Ð°Ðº",
        "Ð»Ñİ"
      ],
      [
        "Ð½Ð¾",
        "ÑĪ"
      ],
      [
        "Ð½Ð¾",
        "ÑģÑĤÐ¸"
      ],
      [
        "ĠÐ²",
        "ÐµÑī"
      ],
      [
        "ĠÐ²",
        "Ð°Ð¶"
      ],
      [
        "ĠÐº",
        "ÑĤÐ¾"
      ],
      [
        "Ðº",
        "Ðµ"
      ],
      [
        "Ðº",
        "Ñĥ"
      ],
      [
        "Ñħ",
        "Ð¾Ð´"
      ],
      [
        "Ñİ",
        "Ñī"
      ],
      [
        "ÐµÐ»",
        "Ð¸"
      ],
      [
        "Ð¾Ð²",
        "ÐµÑĢ"
      ],
      [
        "ĠÑĩ",
        "ÑĤÐ¾Ð±"
      ],
      [
        "ĠÐ¾",
        "ÑģÐ½Ð¾Ð²"
      ],
      [
        "ÑģÑĤÐ²",
        "Ð¾"
      ],
      [
        "ÑģÑĤÐ²",
        "ÑĥÑİÑĤ"
      ],
      [
        "Ð¿",
        "Ð¾Ð»"
      ],
      [
        "Ð¿",
        "ÐµÑĢ"
      ],
      [
        "ÑĥÐ´",
        "Ð¾Ð²"
      ],
      [
        "ĠÐ¼",
        "Ð¾Ð¶Ð½Ð¾"
      ],
      [
        "Ð»Ð¸",
        "Ñĩ"
      ],
      [
        "Ð»Ð¸",
        "Ð±Ð¾"
      ],
      [
        "Ñį",
        "ÑĤ"
      ],
      [
        "Ð°Ð²",
        "Ð¸"
      ],
      [
        "Ð°Ð²",
        "Ð»"
      ],
      [
        "ÐµÐ½Ð¸",
        "Ñİ"
      ],
      [
        "ÐµÐ½Ð¸",
        "Ð¹"
      ],
      [
        "ÑĤÐ¾ÑĢ",
        "Ñĭ"
      ],
      [
        "ĠÐ·",
        "Ð°Ð"
      ],
      [
        "ĠÐ·",
        "Ð´ÐµÑģÑĮ"
      ],
      [
        "ĠÐ¾Ð±",
        "ÑĢÐ°"
      ],
      [
        "ĠÐµ",
        "Ð³Ð¾"
      ],
      [
        "ĠÐ´ÐµÐ»",
        "Ðµ"
      ],
      [
        "ÐµÑĢ",
        "Ðµ"
      ],
      [
        "Ð°Ð½Ð¸",
        "Ð¸"
      ],
      [
        "Ð°Ð¼",
        "Ð¸"
      ],
      [
        "ĠÑģÑĥÐ´",
        "ÐµÐ±"
      ],
      [
        "Ð¾ÑĢ",
        "Ð°"
      ],
      [
        "Ð¾ÑĢ",
        "Ð¾ÑĪ"
      ],
      [
        "ĠÐ¿ÑĢÐ¸",
        "Ð³Ð¾Ð²Ð¾ÑĢ"
      ],
      [
        "ĠÐ±",
        "Ð¾Ð»ÑĮ"
      ],
      [
        "Ð¾ÑĤ",
        "Ñı"
      ],
      [
        "Ð¾ÑĤ",
        "Ð²ÐµÑĤ"
      ],
      [
        "ĠÐ»",
        "Ð¸"
      ],
      [
        "ĠÑģÑĥÐ´ÑĮ",
        "Ðµ"
      ],
      [
        "Ð¾Ð³Ð¸",
        "Ñħ"
      ],
      [
        "ĠÐĴ",
        "ÑģÐ»ÐµÐ´"
      ],
      [
        "ÑģÑĥÐ´",
        "ÐµÐ±"
      ],
      [
        "Ð°Ð²Ð»Ñı",
        "ÑİÑĤ"
      ],
      [
        "ĠÐ±Ñĭ",
        "ÑĤÑĮ"
      ],
      [
        "ĠÑĥ",
        "Ð¼"
      ],
      [
        "ÑĥÐ¶",
        "Ð½Ð¾"
      ],
      [
        "ĠÐ¸ÑģÑĤÐ¸",
        "Ð½Ñĭ"
      ],
      [
        "ĠÐ¸ÑģÑĤÐ¸",
        "Ð½Ð°"
      ],
      [
        "ĠÐ¿ÑĢÐµÐ´",
        "Ð¾ÑģÑĤ"
      ],
      [
        "ĠÐ¿ÑĢÐµÐ´",
        "ÑģÑĤÐ°Ð²Ð»Ñı"
      ],
      [
        "ĠÑĢÐµÑĩ",
        "Ð°Ñħ"
      ],
      [
        "ĠÑħ",
        "Ð¾ÑĢÐ¾ÑĪ"
      ],
      [
        "ĠÐ·Ð°ÐºÐ¾Ð½",
        "Ñĭ"
      ],
      [
        "ĠÐ¾Ð±Ð»",
        "Ð°Ð´"
      ],
      [
        "ĠÑģÐ²Ð¾",
        "ÐµÐ¹"
      ],
      [
        "ĠÐ´Ð¾ÐºÐ°Ð·Ð°ÑĤÐµÐ»ÑĮÑģÑĤÐ²",
        "Ð°"
      ],
      [
        "ĠÑģÐ»ÑĥÑĩ",
        "Ð°"
      ],
      [
        "ĠÐ½Ð¸",
        "ÑĩÐµÐ³Ð¾"
      ],
      [
        "ĠÑįÑĤÐ¸",
        "Ñħ"
      ],
      [
        "ĠÑĢÐµÑĪ",
        "ÐµÐ½Ð¸Ðµ"
      ],
      [
        "ĠÐ»ÑİÐ´",
        "Ð¸"
      ],
      [
        "ĠÑĢÐ°ÑģÑģ",
        "Ð¼"
      ],
      [
        "ĠÑĢÐ°ÑģÑģ",
        "ÑĥÐ¶Ð´"
      ],
      [
        "ĠÐ¾ÑĢÐ°ÑĤÐ¾ÑĢ",
        "ÑģÐºÐ¾Ð³Ð¾"
      ],
      [
        "ĠÑĢÐ¸ÑĤÐ¾ÑĢÐ¸",
        "ÐºÐ¸"
      ],
      [
        "ĠÐ¿Ð¾Ð»",
        "ÐµÐ·"
      ],
      [
        "ĠÐ¿Ð¾Ð´",
        "Ð¾Ð±"
      ],
      [
        "ĠÐ½ÐµÐº",
        "Ð¾ÑĤÐ¾ÑĢÑĭ"
      ],
      [
        "ĠÐ²Ð¾Ð¿ÑĢÐ¾Ñģ",
        "Ð¾Ð²"
      ],
      [
        "ĠÐ´Ð¾ÑģÑĤ",
        "Ð°ÑĤÐ¾"
      ],
      [
        "ĠÐ¼ÐµÐ½",
        "ÑĮÑĪÐµ"
      ],
      [
        "ĠÑģÐ²Ð¾Ð¸",
        "Ñħ"
      ],
      [
        "ĠÑĥÐ±ÐµÐ¶Ð´",
        "ÐµÐ½Ð¸Ñı"
      ],
      [
        "ĠÑı",
        "ÑģÐ½Ð¾"
      ],
      [
        "ĠÐł",
        "Ð¸ÑĤÐ¾ÑĢÐ¸"
      ],
      [
        "ÑĩÐµ",
        "ÑģÐº"
      ],
      [
        "ĠÑģÐ¾Ð±",
        "ÑģÑĤÐ²ÐµÐ½"
      ],
      [
        "ĠÐ½Ð°Ñħ",
        "Ð¾Ð´"
      ],
      [
        "ĠÐ¼Ð¾Ð¶",
        "ÐµÑĤ"
      ],
      [
        "ĠÐ¿ÑĢÐ¸ÑĢÐ¾Ð´",
        "Ðµ"
      ],
      [
        "ĠÐ³Ð¾Ð²Ð¾ÑĢ",
        "ÑıÑĤ"
      ],
      [
        "ĠÐ¾Ð±Ð»Ð°",
        "ÑģÑĤÐ¸"
      ],
      [
        "ĠÐ³Ð¾",
        "ÑģÑĥÐ´Ð°ÑĢ"
      ],
      [
        "ÑģÑĤÑı",
        "Ð¼Ð¸"
      ],
      [
        "ĠÐ¸ÑģÑģÐ»ÐµÐ´",
        "Ð¾Ð²"
      ],
      [
        "Ð°ÐºÐ»Ñİ",
        "Ñĩ"
      ],
      [
        "ĠÑĩÑĤÐ¾Ð±",
        "Ñĭ"
      ],
      [
        "ĠÐ¾Ð±ÑĢÐ°",
        "Ñī"
      ],
      [
        "ĠÐ¿ÑĢÐ¸Ð³Ð¾Ð²Ð¾ÑĢ",
        "Ñĭ"
      ],
      [
        "ĠÐĴÑģÐ»ÐµÐ´",
        "ÑģÑĤÐ²Ð¸Ðµ"
      ],
      [
        "ĠÐłÐ¸ÑĤÐ¾ÑĢÐ¸",
        "ÐºÐ°"
      ],
      [
        ")",
        "."
      ],
      [
        ">",
        "<"
      ],
      [
        "Ð",
        "ĵ"
      ],
      [
        "Ġ",
        "I"
      ],
      [
        "Ġ",
        "ÑĨ"
      ],
      [
        "Ġ",
        "ÑĦ"
      ],
      [
        "ŀ",
        "ÑĤ"
      ],
      [
        "ĠÐ",
        "Ĺ"
      ],
      [
        "ĠÐ",
        "ľ"
      ],
      [
        "ĠÐ",
        "Ŀ"
      ],
      [
        "ĠÐ",
        "ŀÑĤ"
      ],
      [
        "Ðµ",
        "Ð½Ð¾"
      ],
      [
        "Ðµ",
        "ÑģÑĤÐ²"
      ],
      [
        "Ñģ",
        "Ð¿"
      ],
      [
        "Ð°",
        "Ð½"
      ],
      [
        "Ð°",
        "ÑİÑī"
      ],
      [
        "Ð¸",
        "ÑĢ"
      ],
      [
        "Ð¸",
        "Ð·"
      ],
      [
        "Ð¸",
        "Ð±"
      ],
      [
        "Ð½",
        "ÐµÐ²"
      ],
      [
        "Ð½",
        "ÐµÐµ"
      ],
      [
        "Ð½",
        "Ð°Ð½Ð¸Ðµ"
      ],
      [
        "ÑĢ",
        "ÐµÐ¼"
      ],
      [
        "ÑĢ",
        "ÐµÐº"
      ],
      [
        "ÑĢ",
        "Ð°Ð´"
      ],
      [
        "Ð°Ð",
        "³"
      ],
      [
        "Ñĥ",
        "Ð¿"
      ],
      [
        "ÑģÑĤ",
        "Ð°Ð»"
      ],
      [
        "Ñı",
        "Ñı"
      ],
      [
        "Ñı",
        "Ð¼"
      ],
      [
        "Ñĭ",
        "Ñħ"
      ],
      [
        "Ñĭ",
        "ÑģÐº"
      ],
      [
        "Ð²",
        "Ð¾Ð»"
      ],
      [
        "Ð²",
        "ÐµÑģÑĤÐ¸"
      ],
      [
        "Ð²",
        "ÑĤÐ¾ÑĢÑĭ"
      ],
      [
        "Ð»",
        "Ð°Ð²"
      ],
      [
        "Ð»",
        "ÐµÐ´"
      ],
      [
        "Ð»",
        "ÑİÐ´"
      ],
      [
        "Ñĩ",
        "Ðº"
      ],
      [
        "Ñĩ",
        "ÐµÐ¼"
      ],
      [
        "Ñĩ",
        "Ð½ÑĭÐµ"
      ],
      [
        "ĠÑģ",
        "ÑĥÑī"
      ],
      [
        "ĠÑģ",
        "Ð¾Ð²ÐµÑĢ"
      ],
      [
        "Ð´",
        "ÐµÐ»"
      ],
      [
        "Ð´",
        "Ð¾ÑģÑĤ"
      ],
      [
        "Ð´",
        "Ð¾ÐºÐ°Ð·"
      ],
      [
        "Ð´",
        "Ð¾Ð»Ð¶"
      ],
      [
        "ĠÐ¿",
        "Ð¾Ð²"
      ],
      [
        "ĠÐ¿",
        "Ð¾ÑĢ"
      ],
      [
        "ĠÐ¿",
        "ÑĥÑĤ"
      ],
      [
        "Ð°Ðº",
        "Ð¾Ð²"
      ],
      [
        "Ð¼",
        "Ñĥ"
      ],
      [
        "Ð½Ð¾",
        "ÑģÑı"
      ],
      [
        "Ð½Ð¾",
        "ÑģÑĤÑĮ"
      ],
      [
        "ĠÐ½",
        "ÐµÑĤ"
      ],
      [
        "ĠÐ½",
        "ÑĥÐ¶Ð½Ð¾"
      ],
      [
        "ĠÐ²",
        "Ð¾"
      ],
      [
        "ĠÐ²",
        "Ð¾Ð·Ð¼Ð¾Ð¶Ð½Ð¾"
      ],
      [
        "ĠÑĤ",
        "Ð°"
      ],
      [
        "ĠÑĤ",
        "Ð¾Ð»"
      ],
      [
        "ÑģÑı",
        "Ð¶"
      ],
      [
        "Ð¾Ð±",
        "ÑĢ"
      ],
      [
        "Ð¾Ð±",
        "ÑĢÐ°Ð·"
      ],
      [
        "Ð¾Ð±",
        "ÑħÐ¾Ð´"
      ],
      [
        "Ð¾Ð²",
        "Ð¾"
      ],
      [
        "Ð¾Ð²",
        "Ð°"
      ],
      [
        "Ð¾Ð²",
        "Ð°ÑĤÑĮ"
      ],
      [
        "Ð¾Ð²",
        "Ð°Ð½Ð¸Ñı"
      ],
      [
        "ĠÐ¾",
        "ÑģÑĤÐ°Ð»"
      ],
      [
        "ÑĢÐ¸",
        "Ð²"
      ],
      [
        "ÑģÑĤÐ²",
        "Ð°Ñħ"
      ],
      [
        "ÑģÑĤÐ²",
        "ÑĥÑİ"
      ],
      [
        "ÐµÑĤ",
        "Ð¾Ð´"
      ],
      [
        "Ð¾Ð´",
        "Ñĥ"
      ],
      [
        "Ð¾Ð´",
        "Ð°ÑĤÐµÐ»ÑĮ"
      ],
      [
        "Ð¿",
        "Ð¾"
      ],
      [
        "Ð¿",
        "ÑĢÐ¸"
      ],
      [
        "ĠÐ¼",
        "Ð¾Ð³"
      ],
      [
        "ĠÐ¼",
        "ÐµÑĢÐµ"
      ],
      [
        "ĠÐ¼",
        "ÐµÑĤÐ¾Ð´"
      ],
      [
        "Ñī",
        "Ð¸Ð¼"
      ],
      [
        "Ð·",
        "Ð°ÐºÐ¾Ð½"
      ],
      [
        "Ð°Ð·",
        "Ð°ÑĤÑĮ"
      ],
      [
        "ÑĪ",
        "ÐµÐ¹"
      ],
      [
        "ÐµÐ´",
        "Ð¸"
      ],
      [
        "ÐµÐ´",
        "ÐµÐ»Ñı"
      ],
      [
        "ÐµÐ´",
        "ÑĥÐµÑĤ"
      ],
      [
        "ĠÑĤÐ°Ðº",
        "Ð¸Ð¼"
      ],
      [
        "ĠÑĤÐ°Ðº",
        "Ð¸Ñħ"
      ],
      [
        "Ð¾ÑģÑĤ",
        "ÑĮ"
      ],
      [
        "Ð¾ÑģÑĤ",
        "Ð¾ÑĢÐ°"
      ],
      [
        "ĠÐ·",
        "Ð°ÐºÐ»ÑİÑĩ"
      ],
      [
        "ĠÐ¿ÑĢ",
        "Ð¾Ð¸Ð·"
      ],
      [
        "ĠÐ¿ÑĢ",
        "Ð¾ÑģÑĤÐ¾ÑĢÐ°"
      ],
      [
        "ĠÐ¾ÑĤ",
        "Ð»Ð¸Ñĩ"
      ],
      [
        "ĠÐ¾ÑĤ",
        "ÑĭÑģÐº"
      ],
      [
        "ĠÐ¾Ð±",
        "Ðµ"
      ],
      [
        "ĠÐµ",
        "Ð¼Ñĥ"
      ],
      [
        "Ð°ÑĤÑĮ",
        "ÑģÑı"
      ],
      [
        "ÐµÐ½",
        "Ð½Ð¾"
      ],
      [
        "Ð±",
        "Ð¸ÑĢ"
      ],
      [
        "ÐµÑĢ",
        "Ð¶"
      ],
      [
        "ÐµÐ³Ð¾",
        "ÑģÑı"
      ],
      [
        "ĠÐ¿ÑĢÐ¸",
        "ÑĩÐ¸"
      ],
      [
        "ĠÐ¿ÑĢÐ¸",
        "Ð²Ñĭ"
      ],
      [
        "ĠÐ¿ÑĢÐ¸",
        "ÑģÑıÐ¶"
      ],
      [
        "Ð¾Ð»ÑĮ",
        "ÑģÑĤÐ²Ð¸"
      ],
      [
        "Ð¾ÑĤÐ¾ÑĢ",
        "Ð¾Ð³Ð¾"
      ],
      [
        "ĠÐ±",
        "Ð¾Ð»ÐµÐµ"
      ],
      [
        "ĠÑĢÐµ",
        "ÑĩÐ¸"
      ],
      [
        "Ð¸Ð¼",
        "Ð¾"
      ],
      [
        "ĠÐ²Ñģ",
        "Ð»ÐµÐ´"
      ],
      [
        "ĠÐ»",
        "ÐµÐ³"
      ],
      [
        "Ð½Ð°",
        "Ñı"
      ],
      [
        "ÑĩÐ¸",
        "ÑĤ"
      ],
      [
        "Ð¾Ð¿ÑĢ",
        "Ð¾Ð¸Ð·"
      ],
      [
        "ĠÐ°",
        "Ð²ÑĤÐ¾ÑĢÑĭ"
      ],
      [
        "ÑĢÐ°",
        "Ð½"
      ],
      [
        "ĠÑģÐ»",
        "ÐµÐ´ÑĥÐµÑĤ"
      ],
      [
        "ĠÐĴ",
        "ÑģÐµ"
      ],
      [
        "ÑģÑĥÐ´",
        "ÑĮ"
      ],
      [
        "Ð¸Ðµ",
        "ÑģÑı"
      ],
      [
        "ĠÑģÐ°Ð¼",
        "Ð¸"
      ],
      [
        "ĠÑģÐ°Ð¼",
        "Ð¾Ð¼Ñĥ"
      ],
      [
        "ĠÐ½Ð°",
        "Ð¸Ð±"
      ],
      [
        "ĠÐ¸Ð·",
        "Ð²ÐµÑģÑĤ"
      ],
      [
        "ĠÐ¸ÑģÑĤÐ¸",
        "Ð½Ñĥ"
      ],
      [
        "ĠÐºÐ°Ñģ",
        "Ð°ÑİÑĤÑģÑı"
      ],
      [
        "ĠÐºÐ°Ñģ",
        "Ð°ÑİÑī"
      ],
      [
        "ĠÐºÐ¾ÑĤÐ¾ÑĢÑĭ",
        "Ð¼Ð¸"
      ],
      [
        "Ð°ÑĢ",
        "Ð°ÐºÑĤ"
      ],
      [
        "Ð¸Ð´",
        "ÐµÑĤÑĮ"
      ],
      [
        "ĠÐ³Ð¾Ð²Ð¾ÑĢÐ¸",
        "Ð»Ð¸"
      ],
      [
        "ĠÑģÐ¿Ð¾ÑģÐ¾Ð±",
        "Ð¾Ð²"
      ],
      [
        "ĠÑģÐ¿Ð¾ÑģÐ¾Ð±",
        "Ð½Ñĭ"
      ],
      [
        "ĠÑģÐ¿Ð¾ÑģÐ¾Ð±",
        "Ð½ÑĭÐ¼"
      ],
      [
        "ĠÑħ",
        "Ð¾ÑĤÑı"
      ],
      [
        "ĠÑħ",
        "Ð°ÑĢÐ°ÐºÑĤ"
      ],
      [
        "ĠÐ¾Ð´",
        "Ð½Ð¸"
      ],
      [
        "ĠÐ¾Ð´",
        "Ð¸Ð½"
      ],
      [
        "Ð°ÑĤ",
        "ÐµÐ»Ñı"
      ],
      [
        "Ð°ÑĤ",
        "ÐµÐ»Ð¸"
      ],
      [
        "ĠÑĤÐµ",
        "Ñħ"
      ],
      [
        "ĠÐ¾ÑĤÐ½Ð¾ÑģÑı",
        "ÑĤÑģÑı"
      ],
      [
        "ĠÐ¾ÑĤÐ½Ð¾ÑģÐ¸",
        "ÑĤÑģÑı"
      ],
      [
        "ĠÑģÐ²Ð¾",
        "Ñİ"
      ],
      [
        "ĠÐ´Ð¾ÐºÐ°Ð·Ð°ÑĤÐµÐ»ÑĮÑģÑĤÐ²",
        "Ð¾"
      ],
      [
        "ĠÑģÐ»ÑĥÑĩ",
        "Ð°Ñı"
      ],
      [
        "ĠÑģÐ»ÑĥÑĩ",
        "Ð°Ð¹"
      ],
      [
        "ĠÐ¸Ð¼Ðµ",
        "ÑİÑĤ"
      ],
      [
        "ĠÐŁ",
        "Ð¾"
      ],
      [
        "Ð²Ñĭ",
        "Ð¹"
      ],
      [
        "ĠÑģÐ¾ÑģÑĤ",
        "Ð°Ð²Ð»ÑıÑİÑĤ"
      ],
      [
        "ĠÑģÐ¾ÑģÑĤ",
        "ÑĢÐ°Ð´"
      ],
      [
        "ĠÑģÐ¸Ð»Ð»Ð¾Ð³Ð¸Ð·Ð¼",
        "Ð¾Ð²"
      ],
      [
        "ÐºÐ°Ðº",
        "Ð¾Ð¹"
      ],
      [
        "ĠÐ´Ð¾Ð»Ð¶",
        "Ð½Ñĭ"
      ],
      [
        "ĠÐ´Ð¾Ð»Ð¶",
        "ÐµÐ½"
      ],
      [
        "ĠÑĩÐ°",
        "ÑģÑĤÐ¸"
      ],
      [
        "ĠÑįÐ½ÑĤÐ¸Ð¼ÐµÐ¼",
        "Ð°Ð¼"
      ],
      [
        "ĠÐ·Ð½",
        "Ð°Ð½Ð¸"
      ],
      [
        "ĠÑĢÐµÑĪ",
        "ÐµÐ½Ð¸Ñİ"
      ],
      [
        "Ð¾Ð·Ð¼",
        "Ð¾Ð¶"
      ],
      [
        "ĠÑģÐ¸ÑģÑĤÐµÐ¼",
        "Ñĥ"
      ],
      [
        "Ð¾Ð³",
        "Ð´Ð°"
      ],
      [
        "ĠÐ¿Ð¾Ð´",
        "Ð´"
      ],
      [
        "ĠÐ¿Ð¾Ð»ÑĮÐ·",
        "Ñĥ"
      ],
      [
        "ĠÐ½ÐµÐº",
        "Ð¾ÑĤÐ¾ÑĢÐ¾Ð³Ð¾"
      ],
      [
        "ÑģÑĤÐ²Ð¸",
        "ÑĤÐµÐ»ÑĮÐ½Ð¾"
      ],
      [
        "ĠÐ¼ÐµÐ½",
        "ÐµÐµ"
      ],
      [
        "ĠÐ¿ÑĢÐ°Ð²",
        "Ð¸Ð»ÑĮ"
      ],
      [
        "ĠÑģÐ²Ð¾Ð¸",
        "Ð¼Ð¸"
      ],
      [
        "ĠÐ¾ÑĤÐ½Ð¾ÑģÑıÑī",
        "Ð¸ÑħÑģÑı"
      ],
      [
        "ĠÐ¾Ð¿ÑĢ",
        "ÐµÐ´ÐµÐ»Ñı"
      ],
      [
        "ĠÐ³",
        "Ð»Ð°Ð²"
      ],
      [
        "ÑģÐ¾",
        "Ð¾ÑĤÐ²ÐµÑĤ"
      ],
      [
        "ÑĢÐµ",
        "Ñĩ"
      ],
      [
        "ĠÐ¿Ð¾ÑģÑĤ",
        "Ð°Ð²Ð»"
      ],
      [
        "ĠÐºÐ°Ð¶Ð´",
        "ÑĭÐ¹"
      ],
      [
        "ĠÐ´ÐµÐ¹",
        "ÑģÑĤÐ²ÑĥÑİÑĤ"
      ],
      [
        "ĠÐ´ÐµÐ¹",
        "ÑģÑĤÐ²Ð¸ÑĤÐµÐ»ÑĮÐ½Ð¾"
      ],
      [
        "ĠÐ¼Ð½",
        "ÐµÐ½Ð¸Ðµ"
      ],
      [
        "ĠÐ¼Ð½",
        "Ð¾Ð³Ð¸Ñħ"
      ],
      [
        "ĠÐ¾ÑĤÐ´ÐµÐ»ÑĮ",
        "Ð½ÑĭÑħ"
      ],
      [
        "ĠÑģÐ¿ÑĢÐ°Ð²ÐµÐ´Ð»Ð¸Ð²",
        "Ð¾ÑģÑĤÑĮ"
      ],
      [
        "ĠÑĤÑıÐ¶ÑĥÑī",
        "Ð¸ÑħÑģÑı"
      ],
      [
        "ĠÐ´Ð¸Ð°Ð»ÐµÐºÑĤÐ¸",
        "ÐºÐµ"
      ],
      [
        "¿ÑĢ",
        "ÐµÑī"
      ],
      [
        "ĠÐĺ",
        "ÑĤÐ°Ðº"
      ],
      [
        "ÑĥÑĪ",
        "Ð¸"
      ],
      [
        "ĠÑģÐº",
        "Ð°Ð·Ð°ÑĤÑĮ"
      ],
      [
        "ĠÐ¿ÐµÑĢ",
        "Ð²ÑĭÐ¹"
      ],
      [
        "Ð½Ð¾ÑĪ",
        "ÐµÐ½Ð¸Ðµ"
      ],
      [
        "ĠÐ²Ð°Ð¶",
        "ÐµÐ½"
      ],
      [
        "ĠÐ¾ÑģÐ½Ð¾Ð²",
        "Ð°Ð½Ð¸Ð¸"
      ],
      [
        "ÑĥÐ´Ð¾Ð²",
        "Ð¾Ð»ÑĮÑģÑĤÐ²Ð¸"
      ],
      [
        "ÑįÑĤ",
        "Ð¾Ð³Ð¾"
      ],
      [
        "ĠÐ·Ð°Ð",
        "¿ÑĢÐµÑī"
      ],
      [
        "ĠÐ±Ð¾Ð»ÑĮ",
        "ÑĪÐµ"
      ],
      [
        "ÑģÑĥÐ´ÐµÐ±",
        "Ð½ÑĭÑħ"
      ],
      [
        "ĠÑĥÐ¼",
        "ÐµÑĤÑĮ"
      ],
      [
        "ĠÐ¿ÑĢÐµÐ´ÑģÑĤÐ°Ð²Ð»Ñı",
        "ÐµÑĤÑģÑı"
      ],
      [
        "ĠÑħÐ¾ÑĢÐ¾ÑĪ",
        "Ð¾"
      ],
      [
        "ĠÐ¾Ð±Ð»Ð°Ð´",
        "Ð°ÐµÑĤ"
      ],
      [
        "ĠÑģÐ»ÑĥÑĩÐ°",
        "ÐµÐ²"
      ],
      [
        "ĠÑĢÐ°ÑģÑģÐ¼",
        "Ð°ÑĤ"
      ],
      [
        "ĠÑĢÐ°ÑģÑģÑĥÐ¶Ð´",
        "ÐµÐ½Ð¸Ñı"
      ],
      [
        "ĠÐ½ÐµÐºÐ¾ÑĤÐ¾ÑĢÑĭ",
        "Ð¼"
      ],
      [
        "ĠÐ´Ð¾ÑģÑĤÐ°ÑĤÐ¾",
        "ÑĩÐ½Ð¾Ð¹"
      ],
      [
        "ÑĩÐµÑģÐº",
        "Ð¸Ñħ"
      ],
      [
        "ĠÐ³Ð¾ÑģÑĥÐ´Ð°ÑĢ",
        "ÑģÑĤÐ²Ð°Ñħ"
      ],
      [
        "ĠÐ¸ÑģÑģÐ»ÐµÐ´Ð¾Ð²",
        "Ð°ÑĤÐµÐ»Ð¸"
      ],
      [
        "ĠÑĦ",
        "Ð°ÐºÑĤ"
      ],
      [
        "ĠÐŀÑĤ",
        "Ð½Ð¾ÑĪÐµÐ½Ð¸Ðµ"
      ],
      [
        "ÑģÐ¿",
        "Ð¾ÑģÐ¾Ð±"
      ],
      [
        "ÑĩÐº",
        "Ð¾Ð¹"
      ],
      [
        "ÑĩÐµÐ¼",
        "Ñĥ"
      ],
      [
        "ĠÑģÐ¾Ð²ÐµÑĢ",
        "ÑĪ"
      ],
      [
        "ĠÐ¿ÑĥÑĤ",
        "ÐµÐ¼"
      ],
      [
        "ĠÑĤÐ¾Ð»",
        "Ð¿"
      ],
      [
        "Ð¾Ð±ÑħÐ¾Ð´",
        "Ð¸Ð¼Ð¾"
      ],
      [
        "ĠÐ¾ÑģÑĤÐ°Ð»",
        "ÑĮ"
      ],
      [
        "ĠÐ·Ð°ÐºÐ»ÑİÑĩ",
        "Ð°ÐµÑĤÑģÑı"
      ],
      [
        "ĠÐ¾ÑĤÐ»Ð¸Ñĩ",
        "Ð°ÑİÑĤÑģÑı"
      ],
      [
        "ĠÐ¾ÑĤÑĭÑģÐº",
        "Ð°Ð½Ð¸Ñı"
      ],
      [
        "ĠÐ¿ÑĢÐ¸Ð²Ñĭ",
        "ÑĩÐºÐ¾Ð¹"
      ],
      [
        "ĠÐ¿ÑĢÐ¸ÑģÑıÐ¶",
        "Ð½ÑĭÐµ"
      ],
      [
        "ĠÐ²ÑģÐ»ÐµÐ´",
        "ÑģÑĤÐ²Ð¸Ðµ"
      ],
      [
        "Ð¾Ð¿ÑĢÐ¾Ð¸Ð·",
        "Ð²Ð¾Ð´"
      ],
      [
        "ĠÑħÐ°ÑĢÐ°ÐºÑĤ",
        "ÐµÑĢ"
      ],
      [
        "ĠÑģÐ»ÑĥÑĩÐ°Ð¹",
        "Ð½Ð¾"
      ],
      [
        "ĠÑģÐ¾ÑģÑĤÑĢÐ°Ð´",
        "Ð°Ð½Ð¸Ðµ"
      ],
      [
        "ĠÐ¿ÑĢÐ°Ð²Ð¸Ð»ÑĮ",
        "Ð½ÑĭÐ¹"
      ],
      [
        "ĠÐ¾Ð¿ÑĢÐµÐ´ÐµÐ»Ñı",
        "ÑĤÑĮ"
      ],
      [
        "ĠÐ¿Ð¾ÑģÑĤÐ°Ð²Ð»",
        "ÐµÐ½Ð¾"
      ],
      [
        "ÑĥÐ´Ð¾Ð²Ð¾Ð»ÑĮÑģÑĤÐ²Ð¸",
        "Ñı"
      ],
      [
        ")",
        ","
      ],
      [
        ".",
        ")"
      ],
      [
        ".",
        ","
      ],
      [
        "1",
        "9"
      ],
      [
        "3",
        "5"
      ],
      [
        "7",
        "8"
      ],
      [
        "K",
        "a"
      ],
      [
        "T",
        "r"
      ],
      [
        "]",
        ","
      ],
      [
        "]",
        "."
      ],
      [
        "a",
        "m"
      ],
      [
        "f",
        "j"
      ],
      [
        "n",
        "am"
      ],
      [
        "o",
        "o"
      ],
      [
        "p",
        "oo"
      ],
      [
        "u",
        "fj"
      ],
      [
        "¡",
        "Ð°Ð¼"
      ],
      [
        "¢",
        "Ð¾Ð¿"
      ],
      [
        "§",
        "ÑĤÐ¾"
      ],
      [
        "±",
        "Ð¾ÑĤÑı"
      ],
      [
        "±",
        "Ð»ÑİÐ´"
      ],
      [
        "³",
        "Ð¾Ð¼"
      ],
      [
        "¶",
        "Ð°"
      ],
      [
        "¿",
        "ÑĢÐ¸"
      ],
      [
        "¿",
        "ÐµÐ½Ð¸"
      ],
      [
        "Ð",
        "Ĵ"
      ],
      [
        "Ð",
        "ĺ"
      ],
      [
        "Ð",
        "ļ"
      ],
      [
        "Ð",
        "Ľ"
      ],
      [
        "Ð",
        "Ŀ"
      ],
      [
        "Ð",
        "¢Ð¾Ð¿"
      ],
      [
        "Ñ",
        "Ĭ"
      ],
      [
        "Ċ",
        "ĊĊĠĠĠĠ"
      ],
      [
        "Ġ",
        "\""
      ],
      [
        "Ġ",
        "<"
      ],
      [
        "Ġ",
        "ÑģÑĤ"
      ],
      [
        "Ġ",
        "Ð¾Ðº"
      ],
      [
        "Ġ",
        "ÑģÑĤÑĢ"
      ],
      [
        "Ġ",
        "ÑĥÐ´Ð¾Ð²Ð¾Ð»ÑĮÑģÑĤÐ²Ð¸Ñı"
      ],
      [
        "Ġ",
        "19"
      ],
      [
        "Ġ",
        "nam"
      ],
      [
        "Ķ",
        "Ð¾"
      ],
      [
        "Ń",
        "ÑĤÐ¸"
      ],
      [
        "Ð¾",
        "Ñı"
      ],
      [
        "Ð¾",
        "Ñī"
      ],
      [
        "Ð¾",
        "ÐµÐ½Ð¸Ðµ"
      ],
      [
        "Ð¾",
        "ÑıÑĤ"
      ],
      [
        "Ð¾",
        "ÑĨ"
      ],
      [
        "Ð¾",
        "ÑĩÐµÐ³Ð¾"
      ],
      [
        "ĠÐ",
        "¡Ð°Ð¼"
      ],
      [
        "ĠÐ",
        "§ÑĤÐ¾"
      ],
      [
        "ĠÐ",
        "ĶÐ¾"
      ],
      [
        "ĠÐ",
        "ŃÑĤÐ¸"
      ],
      [
        "Ðµ",
        "Ð½Ñĭ"
      ],
      [
        "Ðµ",
        "ÑĪ"
      ],
      [
        "Ðµ",
        "Ð¸Ð¼"
      ],
      [
        "Ðµ",
        "ÑģÑĤÐ²ÐµÐ½"
      ],
      [
        "Ðµ",
        "ÑĩÐ½Ð¾"
      ],
      [
        "Ðµ",
        "ÑĥÐ´Ð¾Ð²"
      ],
      [
        "ÑĤ",
        "Ñĭ"
      ],
      [
        "ÑĤ",
        "ÐµÑĢ"
      ],
      [
        "ÑĤ",
        "Ð°ÐµÑĤÑģÑı"
      ],
      [
        "ÑĤ",
        "Ð¾Ð»ÑĮÐºÐ¾"
      ],
      [
        "Ñģ",
        "Ñĥ"
      ],
      [
        "Ñģ",
        "ÑĮ"
      ],
      [
        "Ñģ",
        "Ð²"
      ],
      [
        "Ñģ",
        "Ð°Ð¼"
      ],
      [
        "Ñģ",
        "Ð¿ÑĢ"
      ],
      [
        "Ñģ",
        "Ð¸Ð»Ð»Ð¾Ð³Ð¸Ð·Ð¼"
      ],
      [
        "Ñģ",
        "ÐµÑģ"
      ],
      [
        "Ñģ",
        "ÑĥÐ¶Ð´"
      ],
      [
        "Ñģ",
        "Ð¸Ð»ÑĮ"
      ],
      [
        "Ñģ",
        "ÑĩÐ¸ÑĤ"
      ],
      [
        "Ð°",
        "ÑģÑĤ"
      ],
      [
        "Ð°",
        "Ð½Ð¾"
      ],
      [
        "Ð°",
        "Ð¸Ð¼"
      ],
      [
        "Ð°",
        "ÑĩÐ¸"
      ],
      [
        "Ð°",
        "Ð½Ð¾Ð²"
      ],
      [
        "Ð¸",
        "ÑĤ"
      ],
      [
        "Ð¸",
        "Ñı"
      ],
      [
        "Ð¸",
        "ÑĤÑĮ"
      ],
      [
        "Ð¸",
        "ÑģÑĤÐ¸"
      ],
      [
        "Ð¸",
        "ÐºÐ¸"
      ],
      [
        "Ð¸",
        "Ð²Ð°ÑĤÑĮ"
      ],
      [
        "Ð¸",
        "Ð½Ð¾Ðµ"
      ],
      [
        "Ð¸",
        "ÑĩÐ½Ð¾"
      ],
      [
        "Ð¸",
        "Ð³"
      ],
      [
        "Ð¸",
        "Ð±Ð¾"
      ],
      [
        "Ð¸",
        "ÐºÐµ"
      ],
      [
        "Ð½",
        "ÐµÐ"
      ],
      [
        "Ð½",
        "Ð°Ð"
      ],
      [
        "Ð½",
        "Ð°Ðº"
      ],
      [
        "Ð½",
        "ÐµÑĤ"
      ],
      [
        "Ð½",
        "Ð¾Ð¼"
      ],
      [
        "Ð½",
        "Ð°Ñħ"
      ],
      [
        "Ð½",
        "Ð¾Ð¼Ñĥ"
      ],
      [
        "Ð½",
        "ÐµÐº"
      ],
      [
        "Ð½",
        "Ð°Ð²Ð¸"
      ],
      [
        "Ð½",
        "ÐµÐ½Ð¸Ð¹"
      ],
      [
        "Ð½",
        "Ð¾Ð³Ð¸Ñħ"
      ],
      [
        "Ð½",
        "ÑĥÐ¶Ð½Ð¾"
      ],
      [
        "Ð½",
        "ÑĤÐµÑĢ"
      ],
      [
        "ÑĢ",
        "ÑĥÐ´"
      ],
      [
        "ÑĢ",
        "Ð¾Ð¸"
      ],
      [
        "ÑĢ",
        "ÐµÐ½Ð¸Ñı"
      ],
      [
        "ÑĢ",
        "ÐµÐ½Ð¸Ðµ"
      ],
      [
        "ÑĢ",
        "Ð½Ð¾Ðµ"
      ],
      [
        "ÐµÐ",
        "¶Ð°"
      ],
      [
        "ÐµÐ",
        "¿ÐµÐ½Ð¸"
      ],
      [
        "Ð°Ð",
        "¶Ðµ"
      ],
      [
        "Ð°Ð",
        "¿ÑĢÐ¸"
      ],
      [
        "Ñĥ",
        "Ð²"
      ],
      [
        "Ñĥ",
        "Ðº"
      ],
      [
        "Ñĥ",
        "ÑĤÑĮ"
      ],
      [
        "Ñĥ",
        "ÑĤÐ¸"
      ],
      [
        "Ñĥ",
        "ÐºÐ¸"
      ],
      [
        "Ñĥ",
        "ÑĢÐ½Ð¾Ðµ"
      ],
      [
        "ÑģÑĤ",
        "Ð½Ð¾"
      ],
      [
        "ÑģÑĤ",
        "ÑĢÐ°"
      ],
      [
        "ÑģÑĤ",
        "Ð½ÑĭÑħ"
      ],
      [
        "Ñı",
        "Ð´"
      ],
      [
        "Ñı",
        "ÑĤÑĮ"
      ],
      [
        "Ñı",
        "Ñī"
      ],
      [
        "Ñı",
        "Ð·"
      ],
      [
        "Ñı",
        "ÑİÑĤ"
      ],
      [
        "ÑĮ",
        "Ñİ"
      ],
      [
        "ÑĮ",
        "Ð¼Ð¸"
      ],
      [
        "Ñĭ",
        "Ðµ"
      ],
      [
        "Ñĭ",
        "Ð»"
      ],
      [
        "Ñĭ",
        "ÑĪ"
      ],
      [
        "Ñĭ",
        "Ð½Ðµ"
      ],
      [
        "Ñĭ",
        "ÑĩÐ½Ð¾"
      ],
      [
        "Ñĭ",
        "ÑĤÐ°ÐµÑĤÑģÑı"
      ],
      [
        "Ð²",
        "Ð¾"
      ],
      [
        "Ð²",
        "Ð¾Ð¼"
      ],
      [
        "Ð²",
        "Ð¾Ð³Ð¾"
      ],
      [
        "Ð²",
        "Ð°ÑİÑĤ"
      ],
      [
        "Ð²",
        "Ð»Ñı"
      ],
      [
        "Ð²",
        "Ð¾Ð·"
      ],
      [
        "Ð²",
        "Ð¾ÑĢÐ¸"
      ],
      [
        "Ð²",
        "Ð¾Ð¿ÑĢÐ¾Ñģ"
      ],
      [
        "Ð²",
        "ÐµÑī"
      ],
      [
        "Ð²",
        "Ð°Ñı"
      ],
      [
        "Ð²",
        "Ð¸Ð½"
      ],
      [
        "Ð²",
        "Ð¾Ð·Ð¼Ð¾Ð¶Ð½Ð¾"
      ],
      [
        "Ð²",
        "ÑģÐµ"
      ],
      [
        "Ð²",
        "Ð¸Ð´ÐµÑĤÑĮ"
      ],
      [
        "Ð»",
        "Ð¾"
      ],
      [
        "Ð»",
        "ÐµÑĤ"
      ],
      [
        "Ð»",
        "Ð°Ñģ"
      ],
      [
        "Ð»",
        "ÐµÐ²"
      ],
      [
        "Ð»",
        "Ð°ÑĤ"
      ],
      [
        "Ð»",
        "ÐµÐ½Ð¸Ð¹"
      ],
      [
        "Ð»",
        "ÐµÐ¶Ð°"
      ],
      [
        "Ñĩ",
        "ÑĤÐ¾"
      ],
      [
        "Ñĩ",
        "Ð¸Ð»"
      ],
      [
        "Ñĩ",
        "ÐºÐ¸"
      ],
      [
        "Ñĩ",
        "Ð°ÑģÑĤ"
      ],
      [
        "ĠÑģ",
        "Ð¼"
      ],
      [
        "ĠÑģ",
        "Ð¾Ð´"
      ],
      [
        "ĠÑģ",
        "Ð¾Ð·"
      ],
      [
        "ĠÑģ",
        "Ð¸Ñħ"
      ],
      [
        "ĠÑģ",
        "Ð¾Ð³"
      ],
      [
        "ĠÑģ",
        "Ð½Ð¾ÑĪ"
      ],
      [
        "ĠÑģ",
        "Ð´ÐµÐ»"
      ],
      [
        "ĠÑģ",
        "ÑĥÑĤÑĮ"
      ],
      [
        "Ð´",
        "Ð¾"
      ],
      [
        "Ð´",
        "Ðµ"
      ],
      [
        "Ð´",
        "Ð¾Ð»"
      ],
      [
        "Ð´",
        "Ð°Ð²"
      ],
      [
        "Ð´",
        "Ð¾Ð¿"
      ],
      [
        "Ð´",
        "Ð»Ñı"
      ],
      [
        "Ð´",
        "ÑĢÑĥÐ"
      ],
      [
        "Ð´",
        "ÑĭÐ²Ð°ÑĤÑĮ"
      ],
      [
        "Ð´",
        "ÐµÐ½Ð¸Ñİ"
      ],
      [
        "ĠÐ¸",
        "Ñħ"
      ],
      [
        "ĠÐ¸",
        "Ð½ÑĤÐµÑĢ"
      ],
      [
        "ĠÐ¿",
        "Ð¾Ð±"
      ],
      [
        "ĠÐ¿",
        "Ð¾Ð¼"
      ],
      [
        "ĠÐ¿",
        "Ð¾Ð½"
      ],
      [
        "ĠÐ¿",
        "Ð¾Ð·"
      ],
      [
        "ĠÐ¿",
        "Ð¾ÑĢÐ¸"
      ],
      [
        "ĠÐ¿",
        "ÑĥÑĤÐ¸"
      ],
      [
        "ĠÐ¿",
        "ÑĭÑĤÐ°ÐµÑĤÑģÑı"
      ],
      [
        "Ð°Ðº",
        "Ð¾Ð¼"
      ],
      [
        "Ð¼",
        "ÐµÑĤ"
      ],
      [
        "Ð¼",
        "ÐµÑĢ"
      ],
      [
        "Ð¼",
        "Ð°ÐµÑĤÑģÑı"
      ],
      [
        "Ð¼",
        "Ð°Ð½Ð¸Ñı"
      ],
      [
        "Ð¼",
        "ÐµÑģÑĤ"
      ],
      [
        "Ð¼",
        "ÐµÑĢÐµ"
      ],
      [
        "Ð¼",
        "ÑĭÑĪ"
      ],
      [
        "Ð½Ð¾",
        "ÑģÐ¸"
      ],
      [
        "Ð½Ð¾",
        "ÑģÑĤÑıÐ¼Ð¸"
      ],
      [
        "ĠÐ½",
        "ÐµÐ¼"
      ],
      [
        "ĠÐ½",
        "Ð°Ð¼"
      ],
      [
        "ĠÐ½",
        "ÐµÐ²"
      ],
      [
        "ĠÐ½",
        "Ð¸Ñħ"
      ],
      [
        "ĠÐ½",
        "Ð°Ð»"
      ],
      [
        "ĠÐ½",
        "ÐµÐ·"
      ],
      [
        "ĠÐ½",
        "Ð°Ð¹"
      ],
      [
        "ĠÐ½",
        "Ð°Ð¿ÑĢÐ¸"
      ],
      [
        "ĠÐ½",
        "ÑĭÐ½Ðµ"
      ],
      [
        "ĠÐ²",
        "ÑģÑı"
      ],
      [
        "ĠÐ²",
        "Ð½Ð¸"
      ],
      [
        "ĠÐ²",
        "ÐµÑĢ"
      ],
      [
        "ĠÐ²",
        "Ð¾Ð·"
      ],
      [
        "ĠÐ²",
        "ÐµÐ·"
      ],
      [
        "ĠÐ²",
        "ÐµÑģÑĤÐ¸"
      ],
      [
        "ĠÐ²",
        "ÑĢÐµÐ¼"
      ],
      [
        "ĠÐ²",
        "Ð¸Ð´ÐµÑĤÑĮ"
      ],
      [
        "ĠÐ²",
        "Ð¾Ð·Ð¼Ð¾Ð¶"
      ],
      [
        "ĠÐº",
        "Ð¾Ð²"
      ],
      [
        "ĠÐº",
        "Ð¾Ð½"
      ],
      [
        "ĠÐº",
        "Ð¾ÑĤÐ¾ÑĢ"
      ],
      [
        "ĠÐº",
        "Ð¾Ð³Ð´Ð°"
      ],
      [
        "ĠÑĤ",
        "Ñĥ"
      ],
      [
        "ĠÑĤ",
        "Ð¾Ð¹"
      ],
      [
        "ĠÑĤ",
        "Ð°Ð¼"
      ],
      [
        "ĠÑĤ",
        "Ð¾Ð¼Ñĥ"
      ],
      [
        "ĠÑĤ",
        "Ð¾Ð³Ð´Ð°"
      ],
      [
        "ĠÑĤ",
        "ÑĢÑĥÐ´"
      ],
      [
        "Ðº",
        "ÑĤÐ¾"
      ],
      [
        "Ðº",
        "Ð¾Ð³Ð¾"
      ],
      [
        "Ðº",
        "Ð°Ñģ"
      ],
      [
        "Ðº",
        "Ð¾ÑĤÐ¾ÑĢÑĭ"
      ],
      [
        "Ðº",
        "ÑģÐµÑģ"
      ],
      [
        "Ðº",
        "Ð»ÐµÐ²"
      ],
      [
        "ĠÐ´",
        "Ð²Ð¸"
      ],
      [
        "ĠÐ´",
        "ÑĥÑĪÐ¸"
      ],
      [
        "ĠÐ´",
        "Ð°Ð¶Ðµ"
      ],
      [
        "ĠÐ´",
        "ÑĥÑĢÐ½Ð¾Ðµ"
      ],
      [
        "Ð½Ð¸",
        "ÑĤ"
      ],
      [
        "Ð½Ð¸",
        "Ñħ"
      ],
      [
        "Ð½Ð¸",
        "ÐµÐ¼"
      ],
      [
        "Ð½Ð¸",
        "Ð»Ð¸"
      ],
      [
        "Ð½Ð¸",
        "ÑĩÐµÑģÐºÐ¸Ñħ"
      ],
      [
        "Ñİ",
        "Ð±"
      ],
      [
        "ÐµÐ»",
        "Ð¾"
      ],
      [
        "Ð¾Ð±",
        "Ð½Ð¾Ð³Ð¾"
      ],
      [
        "Ð¾Ð±",
        "Ð²Ð¸Ð½"
      ],
      [
        "³Ð¾",
        "Ðµ"
      ],
      [
        "Ð¾Ð²",
        "Ð¾Ð´"
      ],
      [
        "Ð¾Ð²",
        "Ð¾Ð¹"
      ],
      [
        "Ð¾Ð²",
        "Ð¸Ñı"
      ],
      [
        "ĠÑĩ",
        "Ð¸ÑģÑĤ"
      ],
      [
        "ĠÑĩ",
        "ÑĥÐ¶Ð´"
      ],
      [
        "ĠÑĩ",
        "ÑĥÐ²"
      ],
      [
        "ĠÐ¾",
        "ÑģÑĤÐ°Ð²Ð»Ñı"
      ],
      [
        "ÑĢÐ¸",
        "ÑĩÐ¸"
      ],
      [
        "ÑĢÐ¸",
        "Ð²Ð°ÑĤÑĮ"
      ],
      [
        "ÑĢÐ¸",
        "ÑģÑĤÐ¾"
      ],
      [
        "ÑģÑĤÐ²",
        "Ð°"
      ],
      [
        "ÑģÑĤÐ²",
        "Ð¾Ð¼"
      ],
      [
        "ÑģÑĤÐ²",
        "Ð¾Ð²Ð°ÑĤÑĮ"
      ],
      [
        "ÐµÑĤ",
        "Ð°"
      ],
      [
        "ÐµÑĤ",
        "Ð¸ÐºÐ¸"
      ],
      [
        "Ð¾Ð´",
        "ÑĩÐ¸"
      ],
      [
        "Ð¾Ð´",
        "Ð¸Ð½"
      ],
      [
        "Ð¾Ð´",
        "Ð¾Ð±ÑĢ"
      ],
      [
        "Ð¾Ð´",
        "Ð°ÑĤÐµÐ»Ñı"
      ],
      [
        "Ð¾Ð´",
        "Ð»ÐµÐ¶Ð°"
      ],
      [
        "Ð¾Ð´",
        "Ð¾Ð±Ð½Ð¾Ð³Ð¾"
      ],
      [
        "Ð½Ñĭ",
        "Ð¼Ð¸"
      ],
      [
        "ÐµÐ¼",
        "Ðµ"
      ],
      [
        "ÐµÐ¼",
        "ÐµÐ½Ð½Ð¾"
      ],
      [
        "Ð¿",
        "Ð¾ÑģÑĤ"
      ],
      [
        "Ð¿",
        "Ð¾Ñģ"
      ],
      [
        "Ð¿",
        "Ð¾ÐºÐ°Ð·"
      ],
      [
        "Ð¿",
        "Ð¾Ð·"
      ],
      [
        "Ð¿",
        "Ð¾Ð´Ð»ÐµÐ¶Ð°"
      ],
      [
        "ÑĥÐ´",
        "Ð¸Ðµ"
      ],
      [
        "ÑĥÐ´",
        "ÑĥÑī"
      ],
      [
        "ĠÐ¼",
        "ÐµÑģÑĤ"
      ],
      [
        "ĠÐ¼",
        "Ð½Ð¾Ð³Ð¾"
      ],
      [
        "ĠÐ¼",
        "ÐµÑĪ"
      ],
      [
        "Ñī",
        "Ðµ"
      ],
      [
        "Ñī",
        "ÐµÐ´"
      ],
      [
        "Ñī",
        "ÐµÐµ"
      ],
      [
        "Ñī",
        "Ð¸Ðµ"
      ],
      [
        "Ð·",
        "ÐºÐ¾"
      ],
      [
        "Ð·",
        "Ð½Ð°Ð½Ð¸Ðµ"
      ],
      [
        "Ð·",
        "Ð½Ð°Ðº"
      ],
      [
        "Ð·",
        "ÑĢÐµÐ½Ð¸Ñı"
      ],
      [
        "Ð»Ð¸",
        "ÑĩÐ½Ð¾"
      ],
      [
        "Ð»Ð¸",
        "Ð·ÐºÐ¾"
      ],
      [
        "ĠÑĢ",
        "Ð°Ð½"
      ],
      [
        "ĠÑĢ",
        "ÑĥÐº"
      ],
      [
        "Ñį",
        "ÑĤÐ¸"
      ],
      [
        "Ñį",
        "Ð½ÑĤÐ¸Ð¼ÐµÐ¼"
      ],
      [
        "ĠÐ½Ðµ",
        "ÑģÐ¾Ð¾ÑĤÐ²ÐµÑĤ"
      ],
      [
        "ĠÐ½Ðµ",
        "Ð¾Ð±ÑħÐ¾Ð´Ð¸Ð¼Ð¾"
      ],
      [
        "ĠÐ½Ðµ",
        "ÑĥÐ´Ð¾Ð²Ð¾Ð»ÑĮÑģÑĤÐ²Ð¸Ñı"
      ],
      [
        "ĠÐ½Ðµ",
        "Ð½Ð°Ð²Ð¸"
      ],
      [
        "Ð°Ð²",
        "Ð¸Ð»ÑĮ"
      ],
      [
        "Ð°Ð²",
        "ÑĤÐ¾ÑĢÑĭ"
      ],
      [
        "Ð°Ð²",
        "Ð´ÑĭÐ²Ð°ÑĤÑĮ"
      ],
      [
        "Ð°Ð·",
        "Ð°Ð»"
      ],
      [
        "Ð¶",
        "ÐµÐ½Ð¸Ñı"
      ],
      [
        "ÑĪ",
        "ÑĮ"
      ],
      [
        "ÐµÐ½Ð¸",
        "ÑĤÑĮ"
      ],
      [
        "ĠÑĤÐ°Ðº",
        "ÑĥÑİ"
      ],
      [
        "ĠÑĤÐ°Ðº",
        "Ð¾Ð²Ð¾"
      ],
      [
        "ĠÐºÐ°Ðº",
        "Ð¾Ðµ"
      ],
      [
        "ĠÐºÐ°Ðº",
        "Ð¾Ð²Ð¾"
      ],
      [
        "Ð¾ÑģÑĤ",
        "ÑĥÐ¿"
      ],
      [
        "Ð¾ÑģÑĤ",
        "ÑĢÐ°Ð½"
      ],
      [
        "ÑĤÐ¾ÑĢ",
        "ÑģÐºÐ¾Ð³Ð¾"
      ],
      [
        "ĠÐ·",
        "Ð°Ð½Ð¸"
      ],
      [
        "ĠÐ·",
        "Ð½Ð°"
      ],
      [
        "ĠÐ·",
        "Ð°Ð´"
      ],
      [
        "ĠÐ·",
        "Ð°Ð²Ð¸"
      ],
      [
        "ĠÐ·",
        "Ð°Ð¸Ð¼"
      ],
      [
        "Ð¾Ð¹",
        "Ð½Ð¾"
      ],
      [
        "Ð¾Ð¹",
        "ÑģÑĤÐ²ÐµÐ½"
      ],
      [
        "Ð¾Ð¹",
        "ÑģÑĤÐ²Ð¾Ð¼"
      ],
      [
        "ĠÐ¿ÑĢ",
        "ÐµÐº"
      ],
      [
        "ĠÐ¿ÑĢ",
        "Ð¾ÑĩÐµÐ³Ð¾"
      ],
      [
        "ĠÐ¿ÑĢ",
        "ÐµÐ¸Ð¼"
      ],
      [
        "ĠÐ¾ÑĤ",
        "Ð¿ÑĢ"
      ],
      [
        "ĠÐ¾Ð±",
        "Ð°"
      ],
      [
        "ĠÐ¾Ð±",
        "Ð¾Ð¸"
      ],
      [
        "ĠÐ¾Ð±",
        "ÑīÐ¸Ð¼"
      ],
      [
        "ĠÐ¾Ð±",
        "ÑĬ"
      ],
      [
        "ĠÐ¾Ð±",
        "ÑĭÑĩÐ½Ð¾"
      ],
      [
        "ĠÐ¾Ð±",
        "ÑīÐµÐ´"
      ],
      [
        "ĠÐµ",
        "ÑīÐµ"
      ],
      [
        "Ð¾Ð½",
        "Ð¾Ð²Ð¾Ð¹"
      ],
      [
        "ÐµÐ¹",
        "ÐºÑĥ"
      ],
      [
        "ÐµÐ½",
        "Ð½ÑĭÑħ"
      ],
      [
        "ÐµÐ½",
        "Ð½ÑĭÐµ"
      ],
      [
        "ÑģÐº",
        "Ð¾Ð¼Ñĥ"
      ],
      [
        "ÑģÐº",
        "Ð¾Ð»ÑĮÐºÐ¾"
      ],
      [
        "ÑģÐº",
        "Ð°Ð·Ð°Ð»"
      ],
      [
        "Ð¾Ð¿",
        "Ð°Ð³"
      ],
      [
        "ĠÐ´ÐµÐ»",
        "Ð°"
      ],
      [
        "ĠÐ´ÐµÐ»",
        "Ð°ÑİÑĤ"
      ],
      [
        "ĠÐ´ÐµÐ»",
        "Ð°Ñħ"
      ],
      [
        "ĠÐ´ÐµÐ»",
        "Ð°ÐµÑĤÑģÑı"
      ],
      [
        "Ð±",
        "ÑĥÐ¶Ð´"
      ],
      [
        "Ð±",
        "Ð¾Ð»ÐµÐµ"
      ],
      [
        "Ð¾Ð¶",
        "Ð½ÑĭÑħ"
      ],
      [
        "Ð¾Ð¶",
        "Ð¸ÑĤÑĮ"
      ],
      [
        "Ð¾Ð¶",
        "Ð´ÐµÐ½Ð¸Ñİ"
      ],
      [
        "ÐµÑĢ",
        "ÐµÐ²"
      ],
      [
        "ÑĤÐµÐ»ÑĮ",
        "Ð½ÑĥÑİ"
      ],
      [
        "Ð¾Ñģ",
        "ÑĥÐ´Ð¸Ðµ"
      ],
      [
        "ĠÑģÑĥÐ´",
        "ÐµÐ¹"
      ],
      [
        "ĠÑģÑĥÐ´",
        "ÑıÑĤ"
      ],
      [
        "ĠÑģÑĥÐ´",
        "Ð¾Ð¿ÑĢÐ¾Ð¸Ð·Ð²Ð¾Ð´"
      ],
      [
        "ĠÑģÑĥÐ´",
        "Ð¸ÑĤ"
      ],
      [
        "Ð¾ÑĢ",
        "ÑĥÑİ"
      ],
      [
        "Ð¾ÑĢ",
        "ÐµÑĤÐ¸ÐºÐ¸"
      ],
      [
        "ĠÐ¿ÑĢÐ¸",
        "ÑģÐ¾"
      ],
      [
        "ĠÐ¿ÑĢÐ¸",
        "ÑħÐ¾Ð´"
      ],
      [
        "ĠÐ¿ÑĢÐ¸",
        "Ð²ÐµÑģÑĤÐ¸"
      ],
      [
        "ĠÐ¿ÑĢÐ¸",
        "ÑģÑĤÑĢÐ°"
      ],
      [
        "Ð¾Ð»ÑĮ",
        "ÑĪÐµÐ¹"
      ],
      [
        "³Ð¸",
        "Ñħ"
      ],
      [
        "ĠÑĤÐ¾",
        "ÑĩÐ½ÑĭÐµ"
      ],
      [
        "ĠÑĤÐ¾",
        "ÑĩÐºÐ¸"
      ],
      [
        "ĠÐ±",
        "ÑĥÐ´ÑĥÑī"
      ],
      [
        "ĠÐ±",
        "Ð»Ð¸Ð·ÐºÐ¾"
      ],
      [
        "ÑģÑĤÑĮ",
        "Ñİ"
      ],
      [
        "Ð¾ÑĤ",
        "ÑĢÐµÐ½Ð¸Ðµ"
      ],
      [
        "Ð¾ÑĤ",
        "Ð½Ð¾ÑģÐ¸"
      ],
      [
        "Ð¸Ð»",
        "ÑģÑı"
      ],
      [
        "Ð¸Ð»",
        "ÐµÐ½"
      ],
      [
        "Ð¸Ð¼",
        "ÑģÑı"
      ],
      [
        "Ð¸Ð¼",
        "ÐµÐ»"
      ],
      [
        "Ð¸Ð¼",
        "Ð°ÑĤÑĮ"
      ],
      [
        "ĠÐ²Ñģ",
        "ÐµÐ¼"
      ],
      [
        "ĠÐ²Ñģ",
        "ÐµÐ³"
      ],
      [
        "ĠÐ»",
        "ÑĥÑĩ"
      ],
      [
        "ĠÐ»",
        "Ð¸Ð½"
      ],
      [
        "ĠÐ»",
        "ÑİÐ±"
      ],
      [
        "Ð¾ÑĤÐ¾ÑĢÑĭ",
        "Ñħ"
      ],
      [
        "Ð¾Ð¸",
        "Ð»Ð¸"
      ],
      [
        "Ð½Ð°",
        "ÐµÐ¼"
      ],
      [
        "Ð½Ð°",
        "ÑĩÐ¸"
      ],
      [
        "Ð½Ð°",
        "ÑģÑĤÐ¾"
      ],
      [
        "Ð½Ð°",
        "ÑģÑĤÑĢ"
      ],
      [
        "ÑĩÐ¸",
        "Ð²Ñĭ"
      ],
      [
        "ÑĩÐ¸",
        "Ð½ÐµÐ½Ð¸Ð¹"
      ],
      [
        "ĠÑģÐ²",
        "Ð¾Ð¹ÑģÑĤÐ²ÐµÐ½"
      ],
      [
        "ĠÐ°",
        "ÐºÑģÐµÑģ"
      ],
      [
        "Ð¾Ð·",
        "Ð°ÐºÐ»ÑİÑĩ"
      ],
      [
        "ÐµÐ¶Ð´",
        "ÐµÐ½Ñĭ"
      ],
      [
        "ĠÐ´Ð¾ÐºÐ°Ð·",
        "Ð°ÑĤÑĮ"
      ],
      [
        "Ð¾Ð¶Ð½Ð¾",
        "ÑģÑĤÑıÐ¼Ð¸"
      ],
      [
        "ĠÑģÑĥÐ´ÑĮ",
        "Ñı"
      ],
      [
        "ĠÑģÑĥÐ´ÑĮ",
        "Ñİ"
      ],
      [
        "ĠÑģÑĥÐ´ÑĮ",
        "ÐµÐ¹"
      ],
      [
        "ĠÑģÑĥÐ´ÑĮ",
        "ÑıÐ¼"
      ],
      [
        "ĠÐ¾Ð½",
        "Ð¾"
      ],
      [
        "ĠÐ¾Ð½",
        "Ð°"
      ],
      [
        "ĠÑģÐ»",
        "ÑĥÑĪ"
      ],
      [
        "ĠÑģÐ»",
        "Ð¾Ð²Ð°"
      ],
      [
        "ÐµÐ½Ð¸Ñı",
        "Ð¼"
      ],
      [
        "ĠÐĴ",
        "Ð¾Ð¿ÑĢÐ¾Ñģ"
      ],
      [
        "ĠÐĴ",
        "Ð¾Ð·Ð¼Ð¾Ð¶Ð½Ð¾"
      ],
      [
        "ĠÐĴ",
        "Ð¼ÐµÑģÑĤ"
      ],
      [
        "ÐµÐµ",
        "ÑģÑı"
      ],
      [
        "ÑģÐ»",
        "ÐµÐ¹"
      ],
      [
        "ÑģÐ»",
        "Ð¾Ð²Ð°"
      ],
      [
        "ÑģÐ»",
        "ÑĥÑĪÐ¸"
      ],
      [
        "ÑģÐ»",
        "Ð¾Ð²Ð¸Ñı"
      ],
      [
        "ÑģÑĥÐ´",
        "Ð¾Ð¿ÑĢÐ¾Ð¸Ð·Ð²Ð¾Ð´"
      ],
      [
        "ĠÑģÐ°Ð¼",
        "Ð¾Ð¼"
      ],
      [
        "ĠÑģÐ°Ð¼",
        "Ð¾Ð³Ð¾"
      ],
      [
        "ĠÑģÐ°Ð¼",
        "Ð¾Ð¹"
      ],
      [
        "ĠÑģÐ°Ð¼",
        "Ð¸Ð¼"
      ],
      [
        "ĠÑģÐ°Ð¼",
        "ÑĭÐ¹"
      ],
      [
        "ĠÐ¸Ð¼",
        "ÐµÐ»"
      ],
      [
        "ĠÐ¸Ð¼",
        "ÐµÑĤÑĮ"
      ],
      [
        "ĠÐ¸Ð¼",
        "ÐµÐ½Ð½Ð¾"
      ],
      [
        "ĠÐ¸ÑģÐº",
        "ÑĢÐ¸Ð²"
      ],
      [
        "ĠÐ½Ð°",
        "ÑĢÐ¾Ð´"
      ],
      [
        "ĠÐ½Ð°",
        "ÑĥÐºÐ¸"
      ],
      [
        "ĠÐ½Ð°",
        "ÑģÐºÐ¾Ð»ÑĮÐºÐ¾"
      ],
      [
        "Ð°Ð²Ð»Ñı",
        "ÑĤÑĮ"
      ],
      [
        "Ð°Ð²Ð»Ñı",
        "ÐµÑĤÑģÑı"
      ],
      [
        "Ð°Ð²Ð»Ñı",
        "ÑİÑī"
      ],
      [
        "ĠÐ±Ñĭ",
        "Ð²Ð°ÑİÑĤ"
      ],
      [
        "ĠÐ±Ñĭ",
        "Ð»Ð¾"
      ],
      [
        "ĠÑĥ",
        "ÑģÑĤÑĢ"
      ],
      [
        "ÑĢÑĥ",
        "ÐºÑĥ"
      ],
      [
        "ÑĥÑī",
        "Ð°ÑĤÑĮ"
      ],
      [
        "ÑĥÑī",
        "ÐµÑģÑĤÐ²ÐµÐ½"
      ],
      [
        "ĠÐ¸Ð·",
        "ÑĢÐµÐº"
      ],
      [
        "ĠÐ¸Ð·",
        "Ð´Ð°Ð²"
      ],
      [
        "ĠÐ¸ÑģÑĤÐ¸",
        "Ð½Ðµ"
      ],
      [
        "ĠÐ¼Ñĭ",
        "ÑģÐ»ÐµÐ¹"
      ],
      [
        "ĠÑįÑĤ",
        "Ð¾Ð¼Ñĥ"
      ],
      [
        "ĠÐ¿ÑĢÐµÐ´",
        "Ð¿Ð¾"
      ],
      [
        "ĠÐ¿ÑĢÐµÐ´",
        "Ð²Ð¸Ð´ÐµÑĤÑĮ"
      ],
      [
        "ĠÐ¿ÑĢÐµÐ´",
        "Ð¼ÐµÑĤ"
      ],
      [
        "ĠÐ¸ÑģÐºÑĥÑģÑģÑĤÐ²",
        "Ð¾"
      ],
      [
        "ĠÐ¸ÑģÐºÑĥÑģÑģÑĤÐ²",
        "Ñĥ"
      ],
      [
        "ĠÐ¸ÑģÐºÑĥÑģÑģÑĤÐ²",
        "Ð°Ð¼"
      ],
      [
        "Ð°ÑĢ",
        "Ñĭ"
      ],
      [
        "Ð°ÑĢ",
        "Ð½Ð¾Ð¹"
      ],
      [
        "Ð½Ðµ",
        "ÑģÑĤÐ¸"
      ],
      [
        "Ð½Ðµ",
        "Ð¾Ð±ÑħÐ¾Ð´Ð¸Ð¼Ð¾"
      ],
      [
        "Ð½ÑĤÐ¸",
        "ÑĩÐ½ÑĭÐµ"
      ],
      [
        "ÑĢÐ°Ð·",
        "Ð±Ð¸ÑĢ"
      ],
      [
        "Ð»Ð¾Ð³Ð¸",
        "ÑĩÐµÑģÐºÐ¸Ñħ"
      ],
      [
        "ÑĤÐµÐ»ÑĮÐ½Ð¾",
        "ÑģÑĤÑĮ"
      ],
      [
        "ĠÑĢÐµÑĩ",
        "ÑĮ"
      ],
      [
        "ĠÐ³Ð¾Ð²Ð¾ÑĢÐ¸",
        "ÑĤ"
      ],
      [
        "ĠÐ³Ð¾Ð²Ð¾ÑĢÐ¸",
        "Ð¼"
      ],
      [
        "ĠÑģÐ¿Ð¾ÑģÐ¾Ð±",
        "Ð½Ð¾ÑģÑĤÐ¸"
      ],
      [
        "ĠÑģÐ¿Ð¾ÑģÐ¾Ð±",
        "Ð½Ð¾ÑģÑĤÑıÐ¼Ð¸"
      ],
      [
        "Ð°ÑĤÐµÐ»ÑĮÑģÑĤÐ²",
        "Ð°Ð¼Ð¸"
      ],
      [
        "ĠÐ¾Ð´",
        "Ð½Ð¾"
      ],
      [
        "ĠÐ¾Ð´",
        "Ð½Ð¾Ð¹"
      ],
      [
        "ĠÐ¾Ð´",
        "Ð½Ð¾Ð³Ð¾"
      ],
      [
        "ĠÐ²Ñĭ",
        "ÑĪÐµ"
      ],
      [
        "ĠÐ²Ñĭ",
        "Ð³"
      ],
      [
        "ĠÐ²Ñĭ",
        "Ð²Ð¾Ð´"
      ],
      [
        "ĠÐ²Ñĭ",
        "Ð¿Ð¾Ð»"
      ],
      [
        "ĠÐ²Ñĭ",
        "Ð½Ð¾ÑģÑı"
      ],
      [
        "ĠÐ²Ñĭ",
        "ÑģÐºÐ°Ð·Ð°Ð»"
      ],
      [
        "ĠÐ²Ñĭ",
        "ÑģÐ»ÑĥÑĪÐ¸"
      ],
      [
        "ĠÑĤÐµ",
        "Ð¾ÑĢÐµÑĤÐ¸ÐºÐ¸"
      ],
      [
        "ĠÐ´ÑĢÑĥÐ",
        "³Ð¾Ð¼"
      ],
      [
        "ĠÐ´ÑĢÑĥÐ",
        "³Ð¾Ðµ"
      ],
      [
        "ĠÐ´ÑĢÑĥÐ",
        "³Ð¸Ñħ"
      ],
      [
        "ÑģÑĤÐ²ÐµÐ½",
        "Ð½Ð¾Ð¹"
      ],
      [
        "ÑģÑĤÐ²ÐµÐ½",
        "Ð½ÑĭÐ¼"
      ],
      [
        "Ð¿ÑĢ",
        "Ð¾ÑĤÐ¸Ð²Ð¾Ð¿Ð¾Ð»"
      ],
      [
        "Ð¿ÑĢ",
        "Ð¾Ð¸Ð·"
      ],
      [
        "Ð¿ÑĢ",
        "ÐµÐ´Ð¸"
      ],
      [
        "Ð¿ÑĢ",
        "Ð°Ð²Ð¸Ð»ÑĮ"
      ],
      [
        "Ð¿ÑĢ",
        "Ð¾ÑģÑĤÑĢÐ°Ð½"
      ],
      [
        "ĠÑĢÐ¾Ð´",
        "Ðµ"
      ],
      [
        "ĠÑĢÐ°Ñģ",
        "Ð¿Ð¾Ð»"
      ],
      [
        "ĠÐ·Ð°ÐºÐ¾Ð½",
        "Ð°"
      ],
      [
        "ĠÐ·Ð°ÐºÐ¾Ð½",
        "Ð¾Ð¼"
      ],
      [
        "ĠÐ·Ð°ÐºÐ¾Ð½",
        "Ð¾Ð´Ð°ÑĤÐµÐ»ÑĮ"
      ],
      [
        "ĠÐ·Ð°ÐºÐ¾Ð½",
        "Ð¾Ð´Ð°ÑĤÐµÐ»Ñı"
      ],
      [
        "ĠÐ²ÑģÐµ",
        "Ñħ"
      ],
      [
        "ĠÐ²ÑģÐµ",
        "ÑĨ"
      ],
      [
        "ĠÑģÐ²Ð¾",
        "Ðµ"
      ],
      [
        "ĠÑģÐ²Ð¾",
        "ÐµÐ³Ð¾"
      ],
      [
        "ĠÐ´Ð¾ÐºÐ°Ð·Ð°ÑĤÐµÐ»ÑĮÑģÑĤÐ²",
        "Ðµ"
      ],
      [
        "ĠÐ´Ð¾ÐºÐ°Ð·Ð°ÑĤÐµÐ»ÑĮÑģÑĤÐ²",
        "Ð°Ñħ"
      ],
      [
        "ĠÐ¸Ð¼Ðµ",
        "ÐµÐ¼"
      ],
      [
        "ÐĲ",
        "ÑĢÐµ"
      ],
      [
        "ÐĲ",
        "ÐĴ"
      ],
      [
        "ÐĲ",
        "ÑĢÐ¸ÑģÑĤÐ¾"
      ],
      [
        "ÐĲ",
        "Ð½ÑĤÐ¸ÑĩÐ½ÑĭÐµ"
      ],
      [
        "ĠÐŁ",
        "Ð¾Ð»ÑĮÐ·"
      ],
      [
        "ĠÐŁ",
        "Ð»Ð°ÑĤ"
      ],
      [
        "ĠÐŁ",
        "ÑĢÐ¸ÑĩÐ¸"
      ],
      [
        "ĠÐŁ",
        "ÐµÑĢÐµÐ²"
      ],
      [
        "ÐµÑģ",
        "Ð°"
      ],
      [
        "ÐµÐ·",
        "Ð½ÑĭÐ¼"
      ],
      [
        "Ð²Ñĭ",
        "Ñħ"
      ],
      [
        "ĠÑģÐ¾ÑģÑĤ",
        "Ð°Ð²Ð»"
      ],
      [
        "ĠÑģÐ¾ÑģÑĤ",
        "Ð°Ð²Ð»ÑıÐµÑĤÑģÑı"
      ],
      [
        "ĠÑģÐ¸Ð»Ð»Ð¾Ð³Ð¸Ð·Ð¼",
        "Ð¾Ð¼"
      ],
      [
        "ĠÑģÐ¸Ð»Ð»Ð¾Ð³Ð¸Ð·Ð¼",
        "Ð°Ñħ"
      ],
      [
        "ĠÐ¿Ð¾",
        "ÑĩÐµÐ¼Ñĥ"
      ],
      [
        "ĠÐ´Ð¾Ð»Ð¶",
        "Ð½Ð¾"
      ],
      [
        "ĠÐ´Ð¾Ð»Ð¶",
        "Ð½ÑĭÐ¼"
      ],
      [
        "ĠÑĩÐ°",
        "ÑģÑĤÑĮ"
      ],
      [
        "ĠÑĩÐ°",
        "ÑģÑĤÐ¾"
      ],
      [
        "ĠÑĩÐ°",
        "ÑģÑĤÐµÐ¹"
      ],
      [
        "ĠÑĩÐ°",
        "ÑģÑĤÐ½ÑĭÑħ"
      ],
      [
        "ÑĢÐ¸ÑĤÐ¾ÑĢÐ¸",
        "ÐºÐ¸"
      ],
      [
        "ĠÑįÑĤÐ¸",
        "Ð¼"
      ],
      [
        "ĠÑįÐ½ÑĤÐ¸Ð¼ÐµÐ¼",
        "Ð°"
      ],
      [
        "ĠÑįÐ½ÑĤÐ¸Ð¼ÐµÐ¼",
        "Ñĭ"
      ],
      [
        "ĠÑįÐ½ÑĤÐ¸Ð¼ÐµÐ¼",
        "Ð¾Ð¹"
      ],
      [
        "ĠÐ·Ð½",
        "Ð°ÑĤÑĮ"
      ],
      [
        "ĠÐ·Ð½",
        "Ð°Ð½Ð¸Ñı"
      ],
      [
        "ĠÐ·Ð½",
        "Ð°Ð½Ð¸Ð¸"
      ],
      [
        "ĠÐ·Ð½",
        "Ð°ÐºÐ¾Ð¼"
      ],
      [
        "ĠÑĢÐµÑĪ",
        "ÐµÐ½Ð¸Ñı"
      ],
      [
        "ĠÐ»ÑİÐ´",
        "ÐµÐ¹"
      ],
      [
        "ĠÐ»ÑİÐ´",
        "ÑıÐ¼"
      ],
      [
        "ĠÐ»ÑİÐ´",
        "ÑĮÐ¼Ð¸"
      ],
      [
        "ĠÑģÐ¸ÑģÑĤÐµÐ¼",
        "Ñĭ"
      ],
      [
        "ĠÑģÐ¸ÑģÑĤÐµÐ¼",
        "Ð°Ñħ"
      ],
      [
        "ĠÐ¾ÑĢÐ°ÑĤÐ¾ÑĢ",
        "ÑģÐºÐ¾Ð¼Ñĥ"
      ],
      [
        "Ð³Ð¾Ð²",
        "ÑĢÐµÐ¼"
      ],
      [
        "ÑĨ",
        "Ð°Ð½Ð¸Ñı"
      ],
      [
        "ĠÑĢÐ¸ÑĤÐ¾ÑĢÐ¸",
        "ÐºÐ°"
      ],
      [
        "ĠÑĢÐ¸ÑĤÐ¾ÑĢÐ¸",
        "ÑĩÐµÑģÐº"
      ],
      [
        "ĠÐ¿Ð¾Ð»",
        "Ð°Ð³"
      ],
      [
        "ĠÐ¿Ð¾Ð»",
        "Ð½Ð¾Ð¼"
      ],
      [
        "ĠÐ¿Ð¾Ð»ÑĮÐ·",
        "Ñĭ"
      ],
      [
        "ĠÐ¿Ð¾Ð»ÑĮÐ·",
        "ÑĥÑİÑĤ"
      ],
      [
        "ĠÐ¿Ð¾Ð»ÑĮÐ·",
        "Ð¾Ð²Ð°ÑĤÑĮ"
      ],
      [
        "ĠÐ²Ð¾Ð¿ÑĢÐ¾Ñģ",
        "Ñĭ"
      ],
      [
        "ĠÐ´Ð¾ÑģÑĤ",
        "Ð¾Ñı"
      ],
      [
        "ĠÐ´Ð¾ÑģÑĤ",
        "Ð¾Ð¹Ð½Ð¾"
      ],
      [
        "ÑģÑĤÐ²Ð¸",
        "Ð¸"
      ],
      [
        "ĠÐ¿ÑĢÐ°Ð²",
        "Ð´Ð¾Ð¿"
      ],
      [
        "ĠÐ¿ÑĢÐ°Ð²",
        "Ð¾ÑģÑĥÐ´Ð¸Ðµ"
      ],
      [
        "ĠÐ¿ÑĢÐ°Ð²",
        "Ð¸Ð»ÐµÐ½"
      ],
      [
        "ĠÐ¿ÑĢÐ¾ÑĤÐ¸Ð²Ð¾Ð¿Ð¾Ð»",
        "Ð¾Ð¶Ð½ÑĭÑħ"
      ],
      [
        "ĠÑĥÐ±ÐµÐ¶Ð´",
        "Ð°ÑĤÑĮ"
      ],
      [
        "ĠÑĥÐ±ÐµÐ¶Ð´",
        "Ð°ÐµÐ¼"
      ],
      [
        "ĠÐ¾ÑĤÐ½Ð¾ÑģÑıÑī",
        "ÐµÐ³Ð¾ÑģÑı"
      ],
      [
        "ĠÐ¾ÑĤÐ½Ð¾ÑģÑıÑī",
        "Ð¸ÐµÑģÑı"
      ],
      [
        "ĠÐ¾ÑĤÐ½Ð¾ÑģÑıÑī",
        "ÐµÐµÑģÑı"
      ],
      [
        "Ð°Ð²ÐµÐ´Ð»Ð¸Ð²",
        "Ð¾Ðµ"
      ],
      [
        "Ð³",
        "Ð½Ñĥ"
      ],
      [
        "Ð³",
        "Ð½ÐµÐ²"
      ],
      [
        "Ð³Ð¾",
        "ÑģÑĥÐ´Ð°ÑĢ"
      ],
      [
        "ĠÑı",
        "Ð²Ð»Ñı"
      ],
      [
        "ĠÐ¾Ð¿ÑĢ",
        "Ð¾Ð²ÐµÑĢ"
      ],
      [
        "ĠÐ¾Ð¿ÑĢ",
        "Ð°Ð²Ð´ÑĭÐ²Ð°ÑĤÑĮ"
      ],
      [
        "ĠÐ³",
        "Ð½ÐµÐ²"
      ],
      [
        "ĠÐł",
        "Ð°Ð·"
      ],
      [
        "ĠÐ¢Ð°Ðº",
        "Ð¾Ð¹"
      ],
      [
        "ĠÐ¢Ð°Ðº",
        "Ð¸Ð¼"
      ],
      [
        "ÑĤÐ°Ðº",
        "Ð¸"
      ],
      [
        "ÑģÐ¾",
        "Ð¾Ð±ÑĢ"
      ],
      [
        "Ð°ÑĤÐ¾",
        "ÑĩÐ½Ð¾Ð¹"
      ],
      [
        "ÑĢÐµ",
        "ÑĩÐ¸"
      ],
      [
        "Ð°Ð¶",
        "ÐµÐ½Ð¸Ñı"
      ],
      [
        "ĠÑģÐ¾",
        "ÑĦ"
      ],
      [
        "ĠÑģÐ¾",
        "Ð¾ÑĤÐ²ÐµÑĤ"
      ],
      [
        "ĠÑģÐ¾",
        "ÑĩÐ¸Ð½ÐµÐ½Ð¸Ð¹"
      ],
      [
        "ĠÑģÐ¾Ð±",
        "Ð¾Ð¹"
      ],
      [
        "ĠÐ¿Ð¾ÑģÑĤ",
        "ÑĥÐ¿"
      ],
      [
        "ĠÐ¿Ð¾ÑģÑĤ",
        "Ð°Ð½Ð¾Ð²"
      ],
      [
        "ĠÐ½Ð°Ñħ",
        "Ð¾Ð¶Ð´ÐµÐ½Ð¸Ñİ"
      ],
      [
        "ĠÐºÐ°Ð¶Ð´",
        "Ð¾Ð³Ð¾"
      ],
      [
        "ĠÐºÐ°Ð¶Ð´",
        "Ð¾Ð¹"
      ],
      [
        "Ð¾Ð±Ñī",
        "Ðµ"
      ],
      [
        "Ð¾Ð±Ñī",
        "ÐµÐ³Ð¾"
      ],
      [
        "Ð¾Ð±Ñī",
        "Ð½Ð¾ÑģÑĤÐ¸"
      ],
      [
        "Ð¾Ð±Ñī",
        "Ð½Ð¾ÑģÑĤÑĮ"
      ],
      [
        "ĠÐ¼Ð¾Ð¶",
        "ÐµÐ¼"
      ],
      [
        "ĠÑĢÐ°Ð·",
        "Ð²Ð¸"
      ],
      [
        "ĠÑĢÐ°Ð·",
        "Ð»Ð¸Ñĩ"
      ],
      [
        "ĠÑĢÐ°Ð·",
        "Ð±Ð¸ÑĢ"
      ],
      [
        "ĠÑĢÐ°Ð·",
        "Ð¼ÑĭÑĪ"
      ],
      [
        "ĠÐ¾ÑĤÐ´ÐµÐ»ÑĮ",
        "Ð½Ð¾Ð¹"
      ],
      [
        "ĠÐ¾ÑĤÐ´ÐµÐ»ÑĮ",
        "Ð½ÑĭÐ¼"
      ],
      [
        "ĠÐ¿ÑĢÐ¸ÑĢÐ¾Ð´",
        "Ñĭ"
      ],
      [
        "ĠÐ³Ð¾Ð²Ð¾ÑĢ",
        "Ñı"
      ],
      [
        "ĠÐ¾Ð±Ð»Ð°",
        "ÑģÑĤÑĮ"
      ],
      [
        "Ð³Ð¾Ð²Ð¾ÑĢ",
        "Ñı"
      ],
      [
        "ĠÐ¿ÑĢÐ¾ÑĤÐ¸Ð²Ð¾Ð¿Ð¾Ð»Ð¾Ð¶Ð½Ð¾",
        "Ðµ"
      ],
      [
        "ĠÐ¿ÑĢÐ¾ÑĤÐ¸Ð²Ð¾Ð¿Ð¾Ð»Ð¾Ð¶Ð½Ð¾",
        "ÑģÑĤÐ¸"
      ],
      [
        "ĠÐ¿ÑĢÐ¾ÑĤÐ¸Ð²Ð¾Ð¿Ð¾Ð»Ð¾Ð¶Ð½Ð¾",
        "ÑģÑĤÐµÐ¹"
      ],
      [
        "ĠÐ¿ÑĢÐ¾ÑĤÐ¸Ð²Ð¾Ð¿Ð¾Ð»Ð¾Ð¶Ð½Ð¾",
        "ÑģÑĤÑıÐ¼Ð¸"
      ],
      [
        "ĠÑĤÑıÐ¶ÑĥÑī",
        "ÐµÐ³Ð¾ÑģÑı"
      ],
      [
        "ĠÑĤÑıÐ¶ÑĥÑī",
        "Ð¸Ð¼ÑģÑı"
      ],
      [
        "ĠÐ´Ð¸Ð°Ð»ÐµÐºÑĤÐ¸",
        "ÐºÐ¸"
      ],
      [
        "ĠÐ´Ð¸Ð°Ð»ÐµÐºÑĤÐ¸",
        "ÐºÐ°"
      ],
      [
        "¿ÑĢ",
        "ÐµÐ¼ÐµÐ½Ð½Ð¾"
      ],
      [
        "ĠÐĺ",
        "Ð·"
      ],
      [
        "Ð°ÐµÐ¼",
        "Ð¾Ð¼Ñĥ"
      ],
      [
        "Ð°ÐµÐ¼",
        "ÑĭÑħ"
      ],
      [
        "ÑĢÐ°Ñģ",
        "Ð½ÐµÐµ"
      ],
      [
        "ÑĢÐ°Ñģ",
        "ÑģÑĥÐ¶Ð´"
      ],
      [
        "ÑĢÐ°Ñģ",
        "Ð¿ÑĢÐ¾ÑģÑĤÑĢÐ°Ð½"
      ],
      [
        "Ð²ÐµÑģÑĤ",
        "Ð½ÑĭÐ¹"
      ],
      [
        "ĠÑģÐº",
        "Ð¾ÑĢÑĥÑİ"
      ],
      [
        "ĠÐ¿ÐµÑĢ",
        "Ð²Ð¾Ð³Ð¾"
      ],
      [
        "ĠÐ²ÐµÑī",
        "Ð¸"
      ],
      [
        "ĠÐ²ÐµÑī",
        "ÑĮ"
      ],
      [
        "ĠÐ²ÐµÑī",
        "Ð°Ñħ"
      ],
      [
        "ĠÐ²Ð°Ð¶",
        "Ð½ÑĭÐ¹"
      ],
      [
        "ĠÐ¾ÑģÐ½Ð¾Ð²",
        "Ð°Ð½"
      ],
      [
        "ÑģÑĤÐ²ÑĥÑİÑĤ",
        "ÑģÑı"
      ],
      [
        "Ð¿Ð¾Ð»",
        "ÐµÐ·Ð½ÑĭÐ¼"
      ],
      [
        "Ð¿ÐµÑĢ",
        "ÐµÐ´"
      ],
      [
        "Ð¿ÐµÑĢ",
        "Ð²Ð¾Ð¼"
      ],
      [
        "Ð¿ÐµÑĢ",
        "Ð²ÑĭÑħ"
      ],
      [
        "ÑįÑĤ",
        "Ð¾Ð¼Ñĥ"
      ],
      [
        "Ð°Ð²Ð¸",
        "ÑĤÑĮ"
      ],
      [
        "ĠÐ·Ð°Ð",
        "±Ð¾ÑĤÑı"
      ],
      [
        "ĠÑģÑĥÐ´ÐµÐ±",
        "Ð½ÑĭÑħ"
      ],
      [
        "ĠÑģÑĥÐ´ÐµÐ±",
        "Ð½ÑĭÐµ"
      ],
      [
        "ĠÑģÑĥÐ´ÐµÐ±",
        "Ð½Ð¾Ð³Ð¾"
      ],
      [
        "Ð¾ÑĢÐ°",
        "ÑĤÐ¾ÑĢÑģÐºÐ¾Ð³Ð¾"
      ],
      [
        "ĠÐ±Ð¾Ð»ÑĮ",
        "ÑĪÐµÐ¹"
      ],
      [
        "ĠÐ»Ð¸",
        "ÑĪÑĮ"
      ],
      [
        "ÑģÑĥÐ´ÐµÐ±",
        "Ð½ÑĭÐµ"
      ],
      [
        "ĠÑĥÐ¼",
        "Ð¾Ð·Ð°ÐºÐ»ÑİÑĩ"
      ],
      [
        "ĠÐ¿ÑĢÐµÐ´Ð¾ÑģÑĤ",
        "Ð°Ð²Ð»ÑıÑİÑĤ"
      ],
      [
        "ĠÐ¿ÑĢÐµÐ´Ð¾ÑģÑĤ",
        "Ð°Ð²Ð»ÑıÑĤÑĮ"
      ],
      [
        "ĠÐ¿ÑĢÐµÐ´Ð¾ÑģÑĤ",
        "Ð°Ð²Ð¸ÑĤÑĮ"
      ],
      [
        "ĠÐ¿ÑĢÐµÐ´ÑģÑĤÐ°Ð²Ð»Ñı",
        "ÐµÑĤ"
      ],
      [
        "ĠÑħÐ¾ÑĢÐ¾ÑĪ",
        "Ð¸Ð¼"
      ],
      [
        "ĠÐ¾Ð±Ð»Ð°Ð´",
        "Ð°ÑİÑĤ"
      ],
      [
        "ĠÑģÐ»ÑĥÑĩÐ°",
        "Ðµ"
      ],
      [
        "ĠÑĢÐ°ÑģÑģÐ¼",
        "Ð¾ÑĤÑĢÐµÐ½Ð¸Ðµ"
      ],
      [
        "ĠÑĢÐ°ÑģÑģÑĥÐ¶Ð´",
        "Ð°ÑĤÑĮ"
      ],
      [
        "ĠÐ¿Ð¾Ð»ÐµÐ·",
        "Ð½Ð¾"
      ],
      [
        "ĠÐ¿Ð¾Ð»ÐµÐ·",
        "Ð½Ð°"
      ],
      [
        "ĠÐ¿Ð¾Ð»ÐµÐ·",
        "Ð½Ð¾Ðµ"
      ],
      [
        "ĠÐ¿Ð¾Ð´Ð¾Ð±",
        "Ð¸Ðµ"
      ],
      [
        "ĠÐ¿Ð¾Ð´Ð¾Ð±",
        "Ð½ÑĭÐµ"
      ],
      [
        "ĠÐ¿Ð¾Ð´Ð¾Ð±",
        "Ð½Ð¾Ðµ"
      ],
      [
        "ĠÐ½ÐµÐºÐ¾ÑĤÐ¾ÑĢÑĭ",
        "Ñħ"
      ],
      [
        "ĠÐ´Ð¾ÑģÑĤÐ°ÑĤÐ¾",
        "ÑĩÐ½Ð¾"
      ],
      [
        "ĠÑıÑģÐ½Ð¾",
        "ÑģÑĤÑĮÑİ"
      ],
      [
        "ĠÑģÐ¾Ð±ÑģÑĤÐ²ÐµÐ½",
        "Ð½Ð¾Ð¹"
      ],
      [
        "ĠÑģÐ¾Ð±ÑģÑĤÐ²ÐµÐ½",
        "Ð½Ð¾Ð³Ð¾"
      ],
      [
        "ĠÑģÐ¾Ð±ÑģÑĤÐ²ÐµÐ½",
        "Ð½ÑĥÑİ"
      ],
      [
        "ĠÐ½Ð°ÑħÐ¾Ð´",
        "ÑıÑĤ"
      ],
      [
        "ĠÐ½Ð°ÑħÐ¾Ð´",
        "Ð¸ÑĤÑģÑı"
      ],
      [
        "ĠÐ½Ð°ÑħÐ¾Ð´",
        "ÑĩÐ¸Ð²Ñĭ"
      ],
      [
        "ĠÐ³Ð¾ÑģÑĥÐ´Ð°ÑĢ",
        "ÑģÑĤÐ²ÐµÐ½Ð½Ð¾Ð¹"
      ],
      [
        "ĠÐ¸ÑģÑģÐ»ÐµÐ´Ð¾Ð²",
        "Ð°Ð½Ð¸Ðµ"
      ],
      [
        "ĠÐ¾Ð±ÑĢÐ°Ñī",
        "Ð°ÑİÑĤ"
      ],
      [
        "ĠÐ¾Ð±ÑĢÐ°Ñī",
        "ÐµÐ½Ð¸Ñı"
      ],
      [
        "ĠÐ¾Ð±ÑĢÐ°Ñī",
        "Ð°ÐµÐ¼ÑĭÑħ"
      ],
      [
        "Ðĵ",
        "ÐĲ"
      ],
      [
        "Ðĵ",
        "ÐĽ"
      ],
      [
        "ĠÑĨ",
        "ÐµÐ»ÑĮ"
      ],
      [
        "ĠÑĨ",
        "ÐµÐ»Ð¸"
      ],
      [
        "ĠÐĹ",
        "Ð°ÐºÐ¾Ð½"
      ],
      [
        "ĠÐĹ",
        "Ð´ÐµÑģÑĮ"
      ],
      [
        "ĠÐľ",
        "ÐµÐ¶Ð´Ñĥ"
      ],
      [
        "ĠÐĿ",
        "ÐµÑĥÐ´Ð¾Ð²"
      ],
      [
        "ÐµÑģÑĤÐ²",
        "ÑĥÐµÑĤ"
      ],
      [
        "ÐµÑģÑĤÐ²",
        "Ð¾Ð²Ð°Ð½Ð¸Ñı"
      ],
      [
        "Ð¸Ð·",
        "ÑĢÐµÐº"
      ],
      [
        "Ð¸Ð·",
        "Ð²ÐµÑģÑĤÐ½ÑĭÐ¹"
      ],
      [
        "ÑıÑı",
        "ÑģÑĮ"
      ],
      [
        "Ð²Ð¾Ð»",
        "Ñĥ"
      ],
      [
        "Ð²Ð¾Ð»",
        "ÑıÑı"
      ],
      [
        "Ð»ÑİÐ´",
        "ÐµÐ¹"
      ],
      [
        "ĠÑģÑĥÑī",
        "Ð½Ð¾ÑģÑĤÐ¸"
      ],
      [
        "ĠÑģÑĥÑī",
        "ÐµÑģÑĤÐ²ÑĥÐµÑĤ"
      ],
      [
        "Ð´ÐµÐ»",
        "Ð°ÐµÑĤÑģÑı"
      ],
      [
        "Ð´Ð¾ÑģÑĤ",
        "Ð¸Ð³"
      ],
      [
        "Ð´Ð¾ÑģÑĤ",
        "Ð°ÑĤÐ¾ÑĩÐ½Ð¾Ð¹"
      ],
      [
        "Ð´Ð¾ÐºÐ°Ð·",
        "Ð°Ð½Ð¾"
      ],
      [
        "Ð´Ð¾ÐºÐ°Ð·",
        "Ð°ÑĤÐµÐ»ÑĮÑģÑĤÐ²Ð°Ð¼Ð¸"
      ],
      [
        "Ð´Ð¾Ð»Ð¶",
        "Ð½Ð¾"
      ],
      [
        "Ð´Ð¾Ð»Ð¶",
        "ÐµÐ½"
      ],
      [
        "ĠÐ¿Ð¾Ð²",
        "Ð¾Ð´Ñĥ"
      ],
      [
        "ĠÐ¿Ð¾Ð²",
        "ÐµÑģÑĤÐ²Ð¾Ð²Ð°Ð½Ð¸Ñı"
      ],
      [
        "ĠÐ¿Ð¾ÑĢ",
        "ÑıÐ´"
      ],
      [
        "Ð°ÐºÐ¾Ð²",
        "Ñĭ"
      ],
      [
        "Ð°ÐºÐ¾Ð²",
        "Ð¾Ð¹"
      ],
      [
        "Ð½Ð¾ÑģÑı",
        "ÑĤÑģÑı"
      ],
      [
        "Ð½Ð¾ÑģÑĤÑĮ",
        "Ñİ"
      ],
      [
        "ĠÐ²Ð¾",
        "Ð¾Ð±ÑīÐµ"
      ],
      [
        "ĠÐ²Ð¾Ð·Ð¼Ð¾Ð¶Ð½Ð¾",
        "ÑģÑĤÐ¸"
      ],
      [
        "ĠÐ²Ð¾Ð·Ð¼Ð¾Ð¶Ð½Ð¾",
        "ÑģÑĤÑĮ"
      ],
      [
        "Ð¾Ð±ÑĢÐ°Ð·",
        "Ð¾Ð¼"
      ],
      [
        "Ð¾Ð±ÑĢÐ°Ð·",
        "Ð¾Ð²Ð°Ð½Ð¸Ñı"
      ],
      [
        "ÑĢÐ¸Ð²",
        "Ð°ÐµÐ¼Ð¾Ð¼Ñĥ"
      ],
      [
        "ÑģÑĤÐ²ÑĥÑİ",
        "ÑīÐ¸Ð¼"
      ],
      [
        "ÑģÑĤÐ²ÑĥÑİ",
        "ÑīÐµÐµ"
      ],
      [
        "Ð¿ÑĢÐ¸",
        "ÑĩÐ°ÑģÑĤ"
      ],
      [
        "Ð¿ÑĢÐ¸",
        "Ð·Ð½Ð°Ðº"
      ],
      [
        "ĠÐ¼Ð¾Ð³",
        "Ð»Ð¸"
      ],
      [
        "ĠÐ¼Ð¾Ð³",
        "ÑĥÑĤ"
      ],
      [
        "Ð·Ð°ÐºÐ¾Ð½",
        "Ð¾Ð´Ð°ÑĤÐµÐ»ÑĮ"
      ],
      [
        "ÐµÐ´Ð¸",
        "Ð½Ð¸ÑĤ"
      ],
      [
        "ĠÐ¿ÑĢÐ¾Ð¸Ð·",
        "Ð²Ð¾Ð»Ñĥ"
      ],
      [
        "ĠÐ¿ÑĢÐ¾Ð¸Ð·",
        "Ð½Ð¾ÑģÑıÑĤÑģÑı"
      ],
      [
        "ÐµÑĢÐ¶",
        "Ð°Ð½Ð¸Ðµ"
      ],
      [
        "ÐµÑĢÐ¶",
        "Ð¸Ð²Ð°ÑĤÑĮ"
      ],
      [
        "ĠÐ¿ÑĢÐ¸ÑĩÐ¸",
        "Ð½Ñĭ"
      ],
      [
        "ĠÐ¿ÑĢÐ¸ÑĩÐ¸",
        "Ð½Ð°"
      ],
      [
        "ĠÐ»ÐµÐ³",
        "ÐºÐ¾"
      ],
      [
        "ĠÐ»ÐµÐ³",
        "ÑĩÐµ"
      ],
      [
        "ÑĩÐ¸ÑĤ",
        "Ð°ÑİÑĤ"
      ],
      [
        "ÑĢÐ°Ð½",
        "Ð½Ð¸Ñħ"
      ],
      [
        "ĠÐĴÑģÐµ",
        "Ð¾Ð±ÑīÐ½Ð¾ÑģÑĤÑĮ"
      ],
      [
        "ÑģÑĥÐ´ÑĮ",
        "Ðµ"
      ],
      [
        "ÑģÑĥÐ´ÑĮ",
        "Ð¸"
      ],
      [
        "ĠÐ½Ð°Ð¸Ð±",
        "Ð¾Ð»ÐµÐµ"
      ],
      [
        "ĠÐ½Ð°Ð¸Ð±",
        "Ð¾Ð»ÑĮÑĪÐµÐ¹"
      ],
      [
        "ĠÐ¸Ð·Ð²ÐµÑģÑĤ",
        "Ð½Ð¾Ð¹"
      ],
      [
        "ĠÐ¸Ð·Ð²ÐµÑģÑĤ",
        "Ð½Ð¾Ðµ"
      ],
      [
        "ĠÐºÐ°ÑģÐ°ÑİÑī",
        "Ð¸ÑħÑģÑı"
      ],
      [
        "ĠÐºÐ°ÑģÐ°ÑİÑī",
        "Ð¸ÐµÑģÑı"
      ],
      [
        "ĠÐ¾Ð´Ð¸Ð½",
        "Ð°ÐºÐ¾Ð²Ñĭ"
      ],
      [
        "ĠÑĤÐµÑħ",
        "Ð½Ð¸ÑĩÐµÑģÐºÐ¸Ñħ"
      ],
      [
        "ĠÑģÐ»ÑĥÑĩÐ°Ñı",
        "Ð¼"
      ],
      [
        "ĠÑģÐ»ÑĥÑĩÐ°Ñı",
        "Ñħ"
      ],
      [
        "ĠÐŁÐ¾",
        "ÑĩÐµÐ¼Ñĥ"
      ],
      [
        "ĠÐŁÐ¾",
        "ÑįÑĤÐ¾Ð¼Ñĥ"
      ],
      [
        "ĠÐ·Ð½Ð°Ð½Ð¸",
        "Ñİ"
      ],
      [
        "ĠÐ·Ð½Ð°Ð½Ð¸",
        "Ð¹"
      ],
      [
        "Ð¾Ð·Ð¼Ð¾Ð¶",
        "Ð½Ð°Ñı"
      ],
      [
        "ĠÐ¿Ð¾Ð´Ð´",
        "Ð°ÐµÑĤÑģÑı"
      ],
      [
        "ĠÐ¿Ð¾Ð´Ð´",
        "ÐµÑĢÐ¶Ð¸Ð²Ð°ÑĤÑĮ"
      ],
      [
        "ĠÐ¿Ð¾Ð»ÑĮÐ·Ñĥ",
        "ÐµÑĤÑģÑı"
      ],
      [
        "ĠÐ³Ð»Ð°Ð²",
        "Ð½ÑĭÐ¼"
      ],
      [
        "ĠÐ³Ð»Ð°Ð²",
        "Ð½Ð°Ñı"
      ],
      [
        "ÑģÐ¾Ð¾ÑĤÐ²ÐµÑĤ",
        "ÑģÑĤÐ²Ð¸Ð¸"
      ],
      [
        "ÑĢÐµÑĩ",
        "ÐµÐ¹"
      ],
      [
        "ÑĢÐµÑĩ",
        "Ð°Ñħ"
      ],
      [
        "ĠÐ·Ð°Ð¿ÑĢÐµÑī",
        "ÐµÐ½Ð¸Ðµ"
      ],
      [
        "ĠÐ·Ð°Ð¿ÑĢÐµÑī",
        "Ð°ÐµÑĤ"
      ],
      [
        "ĠÑĢÐ°ÑģÑģÐ¼Ð°ÑĤ",
        "ÑĢÐ¸Ð²Ð°ÑĤÑĮ"
      ],
      [
        "ĠÑĢÐ°ÑģÑģÐ¼Ð°ÑĤ",
        "ÑĢÐ¸Ð²Ð°ÐµÐ¼Ð¾Ð¼Ñĥ"
      ],
      [
        "ĠÑĢÐ°ÑģÑģÑĥÐ¶Ð´ÐµÐ½Ð¸Ñı",
        "Ñħ"
      ],
      [
        "ĠÑĦÐ°ÐºÑĤ",
        "Ð°"
      ],
      [
        "ÑģÐ¿Ð¾ÑģÐ¾Ð±",
        "Ð½Ð¾ÑģÑĤÑĮÑİ"
      ],
      [
        "ĠÑģÐ¾Ð²ÐµÑĢÑĪ",
        "Ð¸ÑĤÑģÑı"
      ],
      [
        "ĠÑģÐ¾Ð²ÐµÑĢÑĪ",
        "Ð¸Ð»ÑģÑı"
      ],
      [
        "ĠÑĤÐ¾Ð»Ð¿",
        "Ðµ"
      ],
      [
        "ĠÑĤÐ¾Ð»Ð¿",
        "Ð¾Ð¹"
      ],
      [
        "ĠÐ¾ÑģÑĤÐ°Ð»ÑĮ",
        "Ð½ÑĭÑħ"
      ],
      [
        "ĠÐ¾ÑģÑĤÐ°Ð»ÑĮ",
        "Ð½Ð¾Ðµ"
      ],
      [
        "ĠÑħÐ°ÑĢÐ°ÐºÑĤÐµÑĢ",
        "Ð°"
      ],
      [
        "35",
        "5"
      ],
      [
        "Ka",
        "i"
      ],
      [
        "Tr",
        "poo"
      ],
      [
        "ufj",
        "Kai"
      ],
      [
        "±Ð»ÑİÐ´",
        "Ð°Ñı"
      ],
      [
        "Ðĺ",
        "ÐĵÐĲ"
      ],
      [
        "Ðļ",
        "ÐĿ"
      ],
      [
        "Ð¢Ð¾Ð¿",
        "Ð¸ÐºÐµ"
      ],
      [
        "ĠÑģÑĤ",
        "ÐµÐ¿ÐµÐ½Ð¸"
      ],
      [
        "ĠÑģÑĤÑĢ",
        "Ð¾Ð¸Ð»Ð¸"
      ],
      [
        "Ġ19",
        "78"
      ],
      [
        "Ġnam",
        "e"
      ],
      [
        "Ð¾Ñī",
        "ÑĮÑİ"
      ],
      [
        "Ð¾ÑıÑĤ",
        "Ð½Ð¾"
      ],
      [
        "Ð¾ÑĨ",
        "ÐµÐ½Ð¸ÑĤÑĮ"
      ],
      [
        "ĠÐ¡Ð°Ð¼",
        "Ð°Ñı"
      ],
      [
        "ÑĤÑĭ",
        "Ð¼Ð¸"
      ],
      [
        "ÑģÑĥ",
        "Ð°ÑĢÑĭ"
      ],
      [
        "ÑģÐ²",
        "ÑıÐ·"
      ],
      [
        "ÑģÐ°Ð¼",
        "ÑĭÐµ"
      ],
      [
        "ÑģÐ¿ÑĢ",
        "Ð°Ð²ÐµÐ´Ð»Ð¸Ð²Ð¾Ðµ"
      ],
      [
        "ÑģÐ¸Ð»Ð»Ð¾Ð³Ð¸Ð·Ð¼",
        "Ð¾Ð²"
      ],
      [
        "ÑģÐ¸Ð»ÑĮ",
        "Ð½ÐµÐµ"
      ],
      [
        "ÑģÑĩÐ¸ÑĤ",
        "Ð°ÑĤÑĮÑģÑı"
      ],
      [
        "Ð¸ÑģÑĤÐ¸",
        "ÐºÐ¸"
      ],
      [
        "Ð¸ÑĩÐ½Ð¾",
        "ÑģÑĤÐ¸"
      ],
      [
        "Ð½ÐµÐ",
        "¿ÑĢÐµÐ¼ÐµÐ½Ð½Ð¾"
      ],
      [
        "Ð½Ð°Ð",
        "±Ð»ÑİÐ´Ð°Ñı"
      ],
      [
        "Ð½Ð°Ñħ",
        "Ð¾Ð´ÑĩÐ¸"
      ],
      [
        "Ð½ÐµÐº",
        "Ð¾ÑĤÐ¾ÑĢÑĭÑħ"
      ],
      [
        "ÑĢÐ¾Ð¸",
        "ÑĤÑĮ"
      ],
      [
        "ÑıÑī",
        "ÐµÐ³Ð¾"
      ],
      [
        "ÑĭÐ»",
        "Ð¾Ðº"
      ],
      [
        "Ð²Ð¾Ð·",
        "Ð²ÐµÑģÑĤÐ¸"
      ],
      [
        "Ð²Ð¾ÑĢÐ¸",
        "ÑĤÐµÐ»ÑĮÐ½Ð¾ÑģÑĤÑĮ"
      ],
      [
        "Ð²Ð¾Ð¿ÑĢÐ¾Ñģ",
        "Ð¾Ð²"
      ],
      [
        "Ð²ÐµÑī",
        "ÐµÐ¹"
      ],
      [
        "Ð²ÑģÐµ",
        "Ð¾Ð±ÑīÐ½Ð¾ÑģÑĤÐ¸"
      ],
      [
        "Ð»ÐµÑĤ",
        "Ð²Ð¾ÑĢÐ¸ÑĤÐµÐ»ÑĮÐ½Ð¾ÑģÑĤÑĮ"
      ],
      [
        "Ð»Ð°Ñģ",
        "Ð¸ÑĤÑģÑı"
      ],
      [
        "ÑĩÐ¸Ð»",
        "Ð¾"
      ],
      [
        "ĠÑģÐ¼",
        "ÑĥÑīÐ°ÑĤÑĮ"
      ],
      [
        "ĠÑģÐ¾Ð´",
        "ÐµÑĢÐ¶Ð°Ð½Ð¸Ðµ"
      ],
      [
        "ĠÑģÐ¾Ð·",
        "Ð½Ð°Ð½Ð¸Ðµ"
      ],
      [
        "ĠÑģÐ¾Ð³",
        "Ð»Ð°ÑģÐ¸ÑĤÑģÑı"
      ],
      [
        "ĠÑģÐ½Ð¾ÑĪ",
        "ÐµÐ½Ð¸Ð¹"
      ],
      [
        "ĠÑģÐ´ÐµÐ»",
        "Ð°ÑĤÑĮÑģÑı"
      ],
      [
        "Ð´Ð¾Ð»",
        "Ð³Ð¾Ð²ÑĢÐµÐ¼"
      ],
      [
        "Ð´ÑĢÑĥÐ",
        "³Ð¸Ðµ"
      ],
      [
        "ĠÐ¸Ð½ÑĤÐµÑĢ",
        "ÐµÑģÐ°"
      ],
      [
        "ĠÐ¿Ð¾Ð±",
        "ÐµÐ¶Ð´ÐµÐ½Ñĭ"
      ],
      [
        "ĠÐ¿Ð¾Ð¼",
        "Ð¾ÑīÑĮÑİ"
      ],
      [
        "ĠÐ¿Ð¾Ð½",
        "Ð¸Ð¼Ð°ÑĤÑĮ"
      ],
      [
        "ĠÐ¿Ð¾Ð·",
        "Ð²Ð¾Ð»ÑıÑı"
      ],
      [
        "ĠÐ¿Ð¾ÑĢÐ¸",
        "ÑĨÐ°Ð½Ð¸Ñı"
      ],
      [
        "ĠÐ½ÐµÐ¼",
        "Ð½Ð¾Ð³Ð¸Ñħ"
      ],
      [
        "ĠÐ½ÐµÐ²",
        "Ð¾Ð·Ð¼Ð¾Ð¶Ð½Ð°Ñı"
      ],
      [
        "ĠÐ½Ð°Ð»",
        "Ð¸ÑĩÐ½Ð¾ÑģÑĤÐ¸"
      ],
      [
        "ĠÐ½ÐµÐ·",
        "Ð½Ð°ÑĩÐ¸"
      ],
      [
        "ĠÐ½Ð°Ð¹",
        "ÑĤÐ¸"
      ],
      [
        "ĠÐ½Ð°Ð¿ÑĢÐ¸",
        "Ð¼ÐµÑĢ"
      ],
      [
        "ĠÐ²ÑģÑı",
        "ÐºÐ¾Ð³Ð¾"
      ],
      [
        "ĠÐ²Ð½Ð¸",
        "Ð¼Ð°Ð½Ð¸Ñı"
      ],
      [
        "ĠÐ²ÐµÑĢ",
        "Ð¾ÑıÑĤÐ½Ð¾"
      ],
      [
        "ĠÐ²Ð¾Ð·",
        "Ð±ÑĥÐ¶Ð´"
      ],
      [
        "ĠÐ²ÐµÐ·",
        "Ð´Ðµ"
      ],
      [
        "ĠÐ²ÑĢÐµÐ¼",
        "Ñı"
      ],
      [
        "ĠÐ²Ð¾Ð·Ð¼Ð¾Ð¶",
        "Ð½Ñĭ"
      ],
      [
        "ĠÐºÐ¾Ð²",
        "Ð°ÑĢÐ½Ð¾Ð¹"
      ],
      [
        "ĠÐºÐ¾Ð½",
        "ÐµÑĩÐ½Ð¾"
      ],
      [
        "ĠÐºÐ¾ÑĤÐ¾ÑĢ",
        "Ð¾Ð¹"
      ],
      [
        "ĠÑĤÑĢÑĥÐ´",
        "Ð½Ð¾"
      ],
      [
        "ÐºÐ°Ñģ",
        "Ð°ÑİÑĤÑģÑı"
      ],
      [
        "ÐºÐ¾ÑĤÐ¾ÑĢÑĭ",
        "Ðµ"
      ],
      [
        "ÐºÐ»ÐµÐ²",
        "ÐµÑĤÐ°"
      ],
      [
        "ĠÐ´Ð²Ð¸",
        "Ð¶ÐµÐ½Ð¸Ñı"
      ],
      [
        "Ð¾Ð±Ð²Ð¸Ð½",
        "ÑıÑĤÑĮ"
      ],
      [
        "Ð¾Ð²Ð¾Ð´",
        "ÑģÑĤÐ²ÑĥÑİÑĤÑģÑı"
      ],
      [
        "ĠÑĩÐ¸ÑģÑĤ",
        "Ð¾"
      ],
      [
        "ĠÑĩÑĥÐ¶Ð´",
        "ÑĭÑħ"
      ],
      [
        "ĠÑĩÑĥÐ²",
        "ÑģÑĤÐ²Ð¾"
      ],
      [
        "ĠÐ¾ÑģÑĤÐ°Ð²Ð»Ñı",
        "ÑĤÑĮ"
      ],
      [
        "Ð¾Ð´Ð¸Ð½",
        "Ð°ÐºÐ¾Ð²Ð¾Ð¹"
      ],
      [
        "Ð¾Ð´Ð¾Ð±ÑĢ",
        "ÑıÑİÑĤ"
      ],
      [
        "Ð¿Ð¾ÑģÑĤ",
        "ÑĢÐ¾Ð¸ÑĤÑĮ"
      ],
      [
        "Ð¿Ð¾Ñģ",
        "ÑĭÐ»Ð¾Ðº"
      ],
      [
        "Ð¿Ð¾ÐºÐ°Ð·",
        "Ð°Ð½Ð¸Ñı"
      ],
      [
        "Ð¿Ð¾Ð·",
        "Ð½Ð°ÐµÐ¼"
      ],
      [
        "Ð¿Ð¾Ð´Ð»ÐµÐ¶Ð°",
        "ÑīÐ¸Ðµ"
      ],
      [
        "ĠÐ¼ÐµÑģÑĤ",
        "Ð°"
      ],
      [
        "ĠÐ¼ÐµÑĪ",
        "Ð°ÑİÑĤ"
      ],
      [
        "Ð»Ð¸ÑĩÐ½Ð¾",
        "ÑģÑĤÐµÐ¹"
      ],
      [
        "ĠÑĢÐ°Ð½",
        "ÑĮÑĪÐµ"
      ],
      [
        "ĠÑĢÑĥÐº",
        "Ð¾Ð²Ð¾Ð´ÑģÑĤÐ²ÑĥÑİÑĤÑģÑı"
      ],
      [
        "ÑįÑĤÐ¸",
        "Ñħ"
      ],
      [
        "ÑįÐ½ÑĤÐ¸Ð¼ÐµÐ¼",
        "Ð°"
      ],
      [
        "ĠÐ½ÐµÑģÐ¾Ð¾ÑĤÐ²ÐµÑĤ",
        "ÑģÑĤÐ²ÑĥÑİÑīÐ¸Ð¼"
      ],
      [
        "ĠÐ½ÐµÐ½Ð°Ð²Ð¸",
        "ÑģÑĤÐ¸"
      ],
      [
        "Ð¾ÑģÑĤÑĥÐ¿",
        "Ð½ÑĭÐ¼"
      ],
      [
        "ĠÐ·Ð°Ð½Ð¸",
        "Ð¼Ð°ÐµÑĤÑģÑı"
      ],
      [
        "ĠÐ·Ð½Ð°",
        "ÑĩÐ¸Ð»Ð¾"
      ],
      [
        "ĠÐ·Ð°Ð´",
        "Ð°ÑĩÐ¸"
      ],
      [
        "ĠÐ·Ð°Ð²Ð¸",
        "ÑģÑĤÑĮ"
      ],
      [
        "ĠÐ·Ð°Ð¸Ð¼",
        "ÑģÑĤÐ²Ð¾Ð²Ð°ÑĤÑĮ"
      ],
      [
        "ĠÐ¿ÑĢÐµÐº",
        "ÑĢÐ°ÑģÐ½ÐµÐµ"
      ],
      [
        "ĠÐ¿ÑĢÐµÐ¸Ð¼",
        "ÑĥÑīÐµÑģÑĤÐ²ÐµÐ½"
      ],
      [
        "ĠÐ¾ÑĤÐ¿ÑĢ",
        "Ð°Ð²Ð»ÑıÑİÑī"
      ],
      [
        "ĠÐ¾Ð±Ð¾Ð¸",
        "Ð¼"
      ],
      [
        "ĠÐ¾Ð±ÑĬ",
        "ÐµÐ¼Ðµ"
      ],
      [
        "ĠÐ¾Ð±ÑīÐµÐ´",
        "Ð¾ÑģÑĤÑĥÐ¿Ð½ÑĭÐ¼"
      ],
      [
        "Ð¾Ð¿Ð°Ð³",
        "Ðµ"
      ],
      [
        "ĠÑģÑĥÐ´Ð¾Ð¿ÑĢÐ¾Ð¸Ð·Ð²Ð¾Ð´",
        "ÑģÑĤÐ²Ð°"
      ],
      [
        "ĠÐ¿ÑĢÐ¸ÑģÐ¾",
        "ÐµÐ´Ð¸Ð½Ð¸ÑĤ"
      ],
      [
        "ĠÐ¿ÑĢÐ¸ÑħÐ¾Ð´",
        "Ð¸ÑĤÑģÑı"
      ],
      [
        "ĠÐ¿ÑĢÐ¸ÑģÑĤÑĢÐ°",
        "ÑģÑĤÐ½Ð¾"
      ],
      [
        "ĠÐ±ÑĥÐ´ÑĥÑī",
        "ÐµÐ³Ð¾"
      ],
      [
        "Ð¾ÑĤÐ½Ð¾ÑģÐ¸",
        "ÑĤÑģÑı"
      ],
      [
        "ĠÐ²ÑģÐµÐ³",
        "Ð´Ð°"
      ],
      [
        "ĠÐ»ÑĥÑĩ",
        "ÑĪÐµ"
      ],
      [
        "ĠÐ»Ð¸Ð½",
        "ÐµÐ¹ÐºÑĥ"
      ],
      [
        "ĠÐ»ÑİÐ±",
        "Ð²Ð¸"
      ],
      [
        "Ð½Ð°ÑģÑĤÐ¾",
        "ÑıÑīÐµÐ³Ð¾"
      ],
      [
        "Ð½Ð°ÑģÑĤÑĢ",
        "Ð¾ÐµÐ½Ð¸Ðµ"
      ],
      [
        "ĠÑģÐ²Ð¾Ð¹ÑģÑĤÐ²ÐµÐ½",
        "Ð½ÑĭÐ¼Ð¸"
      ],
      [
        "ĠÐ°ÐºÑģÐµÑģ",
        "ÑģÑĥÐ°ÑĢÑĭ"
      ],
      [
        "ĠÑģÐ»ÑĥÑĪ",
        "Ð°ÑĤÐµÐ»Ñı"
      ],
      [
        "ĠÐĴÐ¾Ð¿ÑĢÐ¾Ñģ",
        "Ñĭ"
      ],
      [
        "ĠÐĴÐ¾Ð·Ð¼Ð¾Ð¶Ð½Ð¾",
        "ÑģÑĤÑĮ"
      ],
      [
        "ĠÐĴÐ¼ÐµÑģÑĤ",
        "Ðµ"
      ],
      [
        "ÑģÑĥÐ´Ð¾Ð¿ÑĢÐ¾Ð¸Ð·Ð²Ð¾Ð´",
        "ÑģÑĤÐ²Ð¾"
      ],
      [
        "ĠÐ¸ÑģÐºÑĢÐ¸Ð²",
        "Ð¸Ð»"
      ],
      [
        "ĠÐ½Ð°ÑĢÐ¾Ð´",
        "Ñĥ"
      ],
      [
        "ĠÑĥÑģÑĤÑĢ",
        "Ð¾Ð¹ÑģÑĤÐ²Ð¾Ð¼"
      ],
      [
        "ĠÐ¸Ð·ÑĢÐµÐº",
        "Ð°ÑİÑĤ"
      ],
      [
        "ĠÐ¸Ð·Ð´Ð°Ð²",
        "Ð°ÑĤÑĮ"
      ],
      [
        "ĠÐ¿ÑĢÐµÐ´Ð¿Ð¾",
        "ÑĩÐ¸ÑĤÐ°ÑİÑĤ"
      ],
      [
        "ĠÐ¿ÑĢÐµÐ´Ð¼ÐµÑĤ",
        "Ð¾Ð²"
      ],
      [
        "ÑĢÐ°Ð·Ð±Ð¸ÑĢ",
        "Ð°ÑĤÑĮ"
      ],
      [
        "ĠÐ²ÑĭÐ³",
        "Ð¾Ð´Ñĥ"
      ],
      [
        "ĠÐ²ÑĭÐ²Ð¾Ð´",
        "Ð°Ð¼Ð¸"
      ],
      [
        "ĠÐ²ÑĭÐ¿Ð¾Ð»",
        "Ð½Ð¸Ð»Ð¸"
      ],
      [
        "ĠÐ²ÑĭÐ½Ð¾ÑģÑı",
        "ÑĤ"
      ],
      [
        "ĠÐ²ÑĭÑģÐºÐ°Ð·Ð°Ð»",
        "ÑģÑı"
      ],
      [
        "ĠÐ²ÑĭÑģÐ»ÑĥÑĪÐ¸",
        "Ð²Ð°Ñı"
      ],
      [
        "Ð¿ÑĢÐ¾ÑĤÐ¸Ð²Ð¾Ð¿Ð¾Ð»",
        "Ð¾Ð¶Ð½Ð¾ÑģÑĤÑıÐ¼Ð¸"
      ],
      [
        "Ð¿ÑĢÐ¾Ð¸Ð·",
        "Ð½ÐµÑģÑĤÐ¸"
      ],
      [
        "Ð¿ÑĢÐµÐ´Ð¸",
        "ÑģÐ»Ð¾Ð²Ð¸Ñı"
      ],
      [
        "Ð¿ÑĢÐ°Ð²Ð¸Ð»ÑĮ",
        "Ð½Ð¾Ð¼Ñĥ"
      ],
      [
        "ĠÑĢÐ°ÑģÐ¿Ð¾Ð»",
        "Ð¾Ð¶Ð¸ÑĤÑĮ"
      ],
      [
        "ĠÐ²ÑģÐµÑĨ",
        "ÐµÐ»Ð¾"
      ],
      [
        "ÐĲÑĢÐµ",
        "Ð¾Ð¿Ð°Ð³Ðµ"
      ],
      [
        "ÐĲÐĴ",
        "ÐĲ"
      ],
      [
        "ÐĲÑĢÐ¸ÑģÑĤÐ¾",
        "ÑĤÐµÐ»ÑĮ"
      ],
      [
        "ĠÐŁÐ¾Ð»ÑĮÐ·",
        "Ð°"
      ],
      [
        "ĠÐŁÐ»Ð°ÑĤ",
        "Ð¾Ð½Ð¾Ð²Ð¾Ð¹"
      ],
      [
        "ĠÐŁÑĢÐ¸ÑĩÐ¸",
        "Ð½Ð°"
      ],
      [
        "ĠÐŁÐµÑĢÐµÐ²",
        "Ð¾Ð´"
      ],
      [
        "ĠÑģÐ¾ÑģÑĤÐ°Ð²Ð»",
        "ÐµÐ½Ð½ÑĭÐµ"
      ],
      [
        "ĠÐ·Ð½Ð°ÐºÐ¾Ð¼",
        "ÑģÑĤÐ²Ð¾"
      ],
      [
        "ĠÑĢÐ¸ÑĤÐ¾ÑĢÐ¸ÑĩÐµÑģÐº",
        "Ð¾Ðµ"
      ],
      [
        "ĠÐ¿Ð¾Ð»Ð°Ð³",
        "Ð°ÑİÑĤ"
      ],
      [
        "ĠÐ¿Ð¾Ð»ÑĮÐ·ÑĥÑİÑĤ",
        "ÑģÑı"
      ],
      [
        "ĠÐ¿Ð¾Ð»ÑĮÐ·Ð¾Ð²Ð°ÑĤÑĮ",
        "Ñģ"
      ],
      [
        "ĠÐ´Ð¾ÑģÑĤÐ¾Ñı",
        "Ð½Ð¸ÐµÐ¼"
      ],
      [
        "ĠÐ¿ÑĢÐ°Ð²Ð´Ð¾Ð¿",
        "Ð¾Ð´Ð¾Ð±Ð½Ð¾Ð³Ð¾"
      ],
      [
        "ĠÑĥÐ±ÐµÐ¶Ð´Ð°ÐµÐ¼",
        "ÑģÑı"
      ],
      [
        "Ð³Ð½Ñĥ",
        "ÑĤÑĮ"
      ],
      [
        "Ð³Ð¾ÑģÑĥÐ´Ð°ÑĢ",
        "ÑģÑĤÐ²ÐµÐ½Ð½ÑĭÐ¼"
      ],
      [
        "ĠÑıÐ²Ð»Ñı",
        "ÐµÑĤÑģÑı"
      ],
      [
        "ĠÐ¾Ð¿ÑĢÐ¾Ð²ÐµÑĢ",
        "Ð³Ð½ÑĥÑĤÑĮ"
      ],
      [
        "ĠÐ¾Ð¿ÑĢÐ°Ð²Ð´ÑĭÐ²Ð°ÑĤÑĮ",
        "ÑģÑı"
      ],
      [
        "ÑģÐ¾Ð¾Ð±ÑĢ",
        "Ð°Ð¶ÐµÐ½Ð¸Ñı"
      ],
      [
        "ĠÑģÐ¾ÑĦ",
        "Ð¸ÑģÑĤÐ¸ÐºÐ¸"
      ],
      [
        "ĠÑģÐ¾Ð¾ÑĤÐ²ÐµÑĤ",
        "ÑģÑĤÐ²ÑĥÑİÑīÐµÐµ"
      ],
      [
        "ĠÐ¿Ð¾ÑģÑĤÑĥÐ¿",
        "Ð°ÑİÑĤ"
      ],
      [
        "ĠÐ¿Ð¾ÑģÑĤÐ°Ð½Ð¾Ð²",
        "ÐºÑĥ"
      ],
      [
        "ĠÑĢÐ°Ð·Ð²Ð¸",
        "ÑĤÑĭÐ¼Ð¸"
      ],
      [
        "ĠÑĢÐ°Ð·Ð»Ð¸Ñĩ",
        "Ð°ÑĤÑĮ"
      ],
      [
        "ĠÑĢÐ°Ð·Ð±Ð¸ÑĢ",
        "Ð°ÑİÑĤ"
      ],
      [
        "ĠÑĢÐ°Ð·Ð¼ÑĭÑĪ",
        "Ð»ÐµÐ½Ð¸Ð¹"
      ],
      [
        "ÑĢÐ°ÑģÑģÑĥÐ¶Ð´",
        "Ð°ÑİÑĤ"
      ],
      [
        "ÑĢÐ°ÑģÐ¿ÑĢÐ¾ÑģÑĤÑĢÐ°Ð½",
        "ÑıÑıÑģÑĮ"
      ],
      [
        "ĠÐ¾ÑģÐ½Ð¾Ð²Ð°Ð½",
        "Ð½ÑĥÑİ"
      ],
      [
        "ĠÐ·Ð°Ð±Ð¾ÑĤÑı",
        "ÑĤÑģÑı"
      ],
      [
        "ĠÑĥÐ¼Ð¾Ð·Ð°ÐºÐ»ÑİÑĩ",
        "ÐµÐ½Ð¸ÑıÐ¼"
      ],
      [
        "ĠÐ½Ð°ÑħÐ¾Ð´ÑĩÐ¸Ð²Ñĭ",
        "Ð¼"
      ],
      [
        "ÐĵÐĽ",
        "ÐĲÐĴÐĲ"
      ],
      [
        "ĠÐĿÐµÑĥÐ´Ð¾Ð²",
        "Ð»ÐµÑĤÐ²Ð¾ÑĢÐ¸ÑĤÐµÐ»ÑĮÐ½Ð¾ÑģÑĤÑĮ"
      ],
      [
        "Ð¸Ð·ÑĢÐµÐº",
        "Ð°ÑĤÑĮ"
      ],
      [
        "Ð´Ð¾ÑģÑĤÐ¸Ð³",
        "Ð°ÑİÑĤ"
      ],
      [
        "ĠÐ¿Ð¾ÑĢÑıÐ´",
        "Ð¾Ðº"
      ],
      [
        "Ð¿ÑĢÐ¸ÑĩÐ°ÑģÑĤ",
        "Ð½Ñĭ"
      ],
      [
        "Ð¿ÑĢÐ¸Ð·Ð½Ð°Ðº",
        "Ð°Ð¼Ð¸"
      ],
      [
        "Trpoo",
        "ufjKai"
      ],
      [
        "ÐļÐĿ",
        "ÐĺÐĵÐĲ"
      ],
      [
        "ÑģÐ²ÑıÐ·",
        "Ð¸"
      ],
      [
        "Ð½Ð°ÑħÐ¾Ð´ÑĩÐ¸",
        "Ð²"
      ],
      [
        "Ð´Ð¾Ð»Ð³Ð¾Ð²ÑĢÐµÐ¼",
        "ÐµÐ½Ð½ÑĭÑħ"
      ],
      [
        "ĠÐ½ÐµÐ·Ð½Ð°ÑĩÐ¸",
        "ÑĤÐµÐ»ÑĮÐ½ÑĥÑİ"
      ],
      [
        "ĠÐ²Ð¾Ð·Ð±ÑĥÐ¶Ð´",
        "Ð°Ñı"
      ],
      [
        "ĠÐ½ÐµÑģÐ¾Ð¾ÑĤÐ²ÐµÑĤÑģÑĤÐ²ÑĥÑİÑīÐ¸Ð¼",
        "Ð¸"
      ],
      [
        "ĠÐ¿ÑĢÐµÐ¸Ð¼ÑĥÑīÐµÑģÑĤÐ²ÐµÐ½",
        "Ð½Ð¾"
      ],
      [
        "ĠÐ¾ÑĤÐ¿ÑĢÐ°Ð²Ð»ÑıÑİÑī",
        "Ð¸Ð¼"
      ]
    ]
  }
}